{
  "version": "1.0",
  "truncation": null,
  "padding": null,
  "added_tokens": [
    {
      "id": 0,
      "content": "[UNK]",
      "single_word": false,
      "lstrip": false,
      "rstrip": false,
      "normalized": false,
      "special": true
    },
    {
      "id": 1,
      "content": "[PAD]",
      "single_word": false,
      "lstrip": false,
      "rstrip": false,
      "normalized": false,
      "special": true
    },
    {
      "id": 2,
      "content": "[BOS]",
      "single_word": false,
      "lstrip": false,
      "rstrip": false,
      "normalized": false,
      "special": true
    },
    {
      "id": 3,
      "content": "[EOS]",
      "single_word": false,
      "lstrip": false,
      "rstrip": false,
      "normalized": false,
      "special": true
    }
  ],
  "normalizer": {
    "type": "Sequence",
    "normalizers": [
      {
        "type": "NFC"
      },
      {
        "type": "Lowercase"
      }
    ]
  },
  "pre_tokenizer": {
    "type": "Whitespace"
  },
  "post_processor": null,
  "decoder": null,
  "model": {
    "type": "WordPiece",
    "unk_token": "[UNK]",
    "continuing_subword_prefix": "##",
    "max_input_chars_per_word": 100,
    "vocab": {
      "[UNK]": 0,
      "[PAD]": 1,
      "[BOS]": 2,
      "[EOS]": 3,
      "!": 4,
      "\"": 5,
      "#": 6,
      "$": 7,
      "%": 8,
      "&": 9,
      "'": 10,
      "(": 11,
      ")": 12,
      "*": 13,
      "+": 14,
      ",": 15,
      "-": 16,
      ".": 17,
      "/": 18,
      "0": 19,
      "1": 20,
      "2": 21,
      "3": 22,
      "4": 23,
      "5": 24,
      "6": 25,
      "7": 26,
      "8": 27,
      "9": 28,
      ":": 29,
      ";": 30,
      "<": 31,
      "=": 32,
      ">": 33,
      "?": 34,
      "@": 35,
      "[": 36,
      "\\": 37,
      "]": 38,
      "^": 39,
      "_": 40,
      "`": 41,
      "a": 42,
      "b": 43,
      "c": 44,
      "d": 45,
      "e": 46,
      "f": 47,
      "g": 48,
      "h": 49,
      "i": 50,
      "j": 51,
      "k": 52,
      "l": 53,
      "m": 54,
      "n": 55,
      "o": 56,
      "p": 57,
      "q": 58,
      "r": 59,
      "s": 60,
      "t": 61,
      "u": 62,
      "v": 63,
      "w": 64,
      "x": 65,
      "y": 66,
      "z": 67,
      "{": 68,
      "|": 69,
      "}": 70,
      "~": 71,
      "": 72,
      "": 73,
      "": 74,
      "": 75,
      "": 76,
      "": 77,
      "": 78,
      "": 79,
      "": 80,
      "": 81,
      "": 82,
      "": 83,
      "": 84,
      "": 85,
      "": 86,
      "": 87,
      "": 88,
      "": 89,
      "": 90,
      "": 91,
      "": 92,
      "": 93,
      "": 94,
      "": 95,
      "": 96,
      "": 97,
      "": 98,
      "": 99,
      "": 100,
      "": 101,
      "": 102,
      "": 103,
      "¡": 104,
      "¢": 105,
      "£": 106,
      "¤": 107,
      "¥": 108,
      "¦": 109,
      "§": 110,
      "¨": 111,
      "©": 112,
      "ª": 113,
      "«": 114,
      "¬": 115,
      "­": 116,
      "®": 117,
      "¯": 118,
      "°": 119,
      "±": 120,
      "²": 121,
      "³": 122,
      "´": 123,
      "µ": 124,
      "¶": 125,
      "·": 126,
      "¸": 127,
      "¹": 128,
      "º": 129,
      "»": 130,
      "¼": 131,
      "½": 132,
      "¾": 133,
      "¿": 134,
      "×": 135,
      "ß": 136,
      "à": 137,
      "á": 138,
      "â": 139,
      "ã": 140,
      "ä": 141,
      "å": 142,
      "æ": 143,
      "ç": 144,
      "è": 145,
      "é": 146,
      "ê": 147,
      "ë": 148,
      "ì": 149,
      "í": 150,
      "î": 151,
      "ï": 152,
      "ð": 153,
      "ñ": 154,
      "ò": 155,
      "ó": 156,
      "ô": 157,
      "õ": 158,
      "ö": 159,
      "÷": 160,
      "ø": 161,
      "ù": 162,
      "ú": 163,
      "û": 164,
      "ü": 165,
      "ý": 166,
      "þ": 167,
      "ÿ": 168,
      "ā": 169,
      "ă": 170,
      "ą": 171,
      "ć": 172,
      "ĉ": 173,
      "ċ": 174,
      "č": 175,
      "ď": 176,
      "đ": 177,
      "ē": 178,
      "ĕ": 179,
      "ė": 180,
      "ę": 181,
      "ě": 182,
      "ĝ": 183,
      "ğ": 184,
      "ġ": 185,
      "ģ": 186,
      "ħ": 187,
      "ĩ": 188,
      "ī": 189,
      "ĭ": 190,
      "į": 191,
      "ı": 192,
      "ĵ": 193,
      "ķ": 194,
      "ĸ": 195,
      "ĺ": 196,
      "ļ": 197,
      "ľ": 198,
      "ŀ": 199,
      "ł": 200,
      "ń": 201,
      "ņ": 202,
      "ň": 203,
      "ŋ": 204,
      "ō": 205,
      "ŏ": 206,
      "ő": 207,
      "œ": 208,
      "ŕ": 209,
      "ř": 210,
      "ś": 211,
      "ŝ": 212,
      "ş": 213,
      "š": 214,
      "ţ": 215,
      "ť": 216,
      "ŧ": 217,
      "ũ": 218,
      "ū": 219,
      "ŭ": 220,
      "ů": 221,
      "ű": 222,
      "ų": 223,
      "ŵ": 224,
      "ź": 225,
      "ż": 226,
      "ž": 227,
      "ƒ": 228,
      "ƚ": 229,
      "ơ": 230,
      "ƣ": 231,
      "ư": 232,
      "ƴ": 233,
      "ƶ": 234,
      "ƹ": 235,
      "ƽ": 236,
      "ǎ": 237,
      "ǐ": 238,
      "ǒ": 239,
      "ǔ": 240,
      "ǘ": 241,
      "ǧ": 242,
      "ǯ": 243,
      "ǰ": 244,
      "ǹ": 245,
      "ǻ": 246,
      "ǽ": 247,
      "ǿ": 248,
      "ȇ": 249,
      "ȏ": 250,
      "ȗ": 251,
      "ș": 252,
      "ț": 253,
      "ȣ": 254,
      "ȩ": 255,
      "ȫ": 256,
      "ȷ": 257,
      "ȸ": 258,
      "ȹ": 259,
      "ɐ": 260,
      "ɑ": 261,
      "ɔ": 262,
      "ɗ": 263,
      "ə": 264,
      "ɚ": 265,
      "ɛ": 266,
      "ɠ": 267,
      "ɣ": 268,
      "ɨ": 269,
      "ɪ": 270,
      "ɲ": 271,
      "ɳ": 272,
      "ɵ": 273,
      "ɶ": 274,
      "ɷ": 275,
      "ɽ": 276,
      "ɾ": 277,
      "ʀ": 278,
      "ʁ": 279,
      "ʃ": 280,
      "ʊ": 281,
      "ʌ": 282,
      "ʒ": 283,
      "ʡ": 284,
      "ʢ": 285,
      "ʮ": 286,
      "ʰ": 287,
      "ʱ": 288,
      "ʳ": 289,
      "ʴ": 290,
      "ʵ": 291,
      "ʺ": 292,
      "ʻ": 293,
      "ʼ": 294,
      "ʽ": 295,
      "ʾ": 296,
      "ʿ": 297,
      "ˆ": 298,
      "ˇ": 299,
      "ˈ": 300,
      "ː": 301,
      "˗": 302,
      "˘": 303,
      "˙": 304,
      "˚": 305,
      "˛": 306,
      "˜": 307,
      "˝": 308,
      "ˢ": 309,
      "ˮ": 310,
      "˲": 311,
      "˼": 312,
      "˽": 313,
      "˾": 314,
      "̀": 315,
      "́": 316,
      "̃": 317,
      "̆": 318,
      "̇": 319,
      "̍": 320,
      "̐": 321,
      "̤": 322,
      "̥": 323,
      "̨": 324,
      "̱": 325,
      "̳": 326,
      "̶": 327,
      "̸": 328,
      "ͣ": 329,
      "ͨ": 330,
      "ͬ": 331,
      "ͳ": 332,
      "ͷ": 333,
      "ͺ": 334,
      "ͻ": 335,
      "ͼ": 336,
      "΄": 337,
      "ΐ": 338,
      "ά": 339,
      "έ": 340,
      "ή": 341,
      "ί": 342,
      "ΰ": 343,
      "α": 344,
      "β": 345,
      "γ": 346,
      "δ": 347,
      "ε": 348,
      "ζ": 349,
      "η": 350,
      "θ": 351,
      "ι": 352,
      "κ": 353,
      "λ": 354,
      "μ": 355,
      "ν": 356,
      "ξ": 357,
      "ο": 358,
      "π": 359,
      "ρ": 360,
      "ς": 361,
      "σ": 362,
      "τ": 363,
      "υ": 364,
      "φ": 365,
      "χ": 366,
      "ψ": 367,
      "ω": 368,
      "ϊ": 369,
      "ϋ": 370,
      "ό": 371,
      "ύ": 372,
      "ώ": 373,
      "ϕ": 374,
      "ϣ": 375,
      "ϵ": 376,
      "ϸ": 377,
      "ϻ": 378,
      "а": 379,
      "б": 380,
      "в": 381,
      "г": 382,
      "д": 383,
      "е": 384,
      "ж": 385,
      "з": 386,
      "и": 387,
      "й": 388,
      "к": 389,
      "л": 390,
      "м": 391,
      "н": 392,
      "о": 393,
      "п": 394,
      "р": 395,
      "с": 396,
      "т": 397,
      "у": 398,
      "ф": 399,
      "х": 400,
      "ц": 401,
      "ч": 402,
      "ш": 403,
      "щ": 404,
      "ъ": 405,
      "ы": 406,
      "ь": 407,
      "э": 408,
      "ю": 409,
      "я": 410,
      "ё": 411,
      "ђ": 412,
      "ѓ": 413,
      "є": 414,
      "ѕ": 415,
      "і": 416,
      "ї": 417,
      "ј": 418,
      "љ": 419,
      "њ": 420,
      "ћ": 421,
      "ќ": 422,
      "ў": 423,
      "џ": 424,
      "ѯ": 425,
      "ѷ": 426,
      "ѹ": 427,
      "ґ": 428,
      "ғ": 429,
      "ҙ": 430,
      "қ": 431,
      "ҡ": 432,
      "ң": 433,
      "ҫ": 434,
      "ү": 435,
      "ұ": 436,
      "ҳ": 437,
      "ҵ": 438,
      "һ": 439,
      "ҽ": 440,
      "ә": 441,
      "ӡ": 442,
      "ӣ": 443,
      "ө": 444,
      "ӫ": 445,
      "ӭ": 446,
      "ӱ": 447,
      "ӵ": 448,
      "ӻ": 449,
      "ӿ": 450,
      "ԁ": 451,
      "ԡ": 452,
      "ԥ": 453,
      "ԭ": 454,
      "ա": 455,
      "բ": 456,
      "ժ": 457,
      "լ": 458,
      "խ": 459,
      "ձ": 460,
      "ղ": 461,
      "մ": 462,
      "չ": 463,
      "վ": 464,
      "֪": 465,
      "ֲ": 466,
      "ַ": 467,
      "ָ": 468,
      "ֹ": 469,
      "ֽ": 470,
      "־": 471,
      "ֿ": 472,
      "׀": 473,
      "א": 474,
      "ב": 475,
      "ג": 476,
      "ד": 477,
      "ה": 478,
      "ו": 479,
      "ז": 480,
      "ח": 481,
      "ט": 482,
      "י": 483,
      "ך": 484,
      "כ": 485,
      "ל": 486,
      "ם": 487,
      "מ": 488,
      "ן": 489,
      "נ": 490,
      "ס": 491,
      "ע": 492,
      "ף": 493,
      "פ": 494,
      "צ": 495,
      "ק": 496,
      "ר": 497,
      "ש": 498,
      "ת": 499,
      "׬": 500,
      "׳": 501,
      "״": 502,
      "׵": 503,
      "׼": 504,
      "،": 505,
      "؛": 506,
      "؟": 507,
      "ء": 508,
      "آ": 509,
      "أ": 510,
      "ؤ": 511,
      "إ": 512,
      "ئ": 513,
      "ا": 514,
      "ب": 515,
      "ة": 516,
      "ت": 517,
      "ث": 518,
      "ج": 519,
      "ح": 520,
      "خ": 521,
      "د": 522,
      "ذ": 523,
      "ر": 524,
      "ز": 525,
      "س": 526,
      "ش": 527,
      "ص": 528,
      "ض": 529,
      "ط": 530,
      "ظ": 531,
      "ع": 532,
      "غ": 533,
      "ـ": 534,
      "ف": 535,
      "ق": 536,
      "ك": 537,
      "ل": 538,
      "م": 539,
      "ن": 540,
      "ه": 541,
      "و": 542,
      "ى": 543,
      "ي": 544,
      "ً": 545,
      "َ": 546,
      "ُ": 547,
      "ِ": 548,
      "ّ": 549,
      "ْ": 550,
      "ٔ": 551,
      "٭": 552,
      "ٱ": 553,
      "ٷ": 554,
      "پ": 555,
      "چ": 556,
      "ژ": 557,
      "ڤ": 558,
      "ک": 559,
      "گ": 560,
      "ڱ": 561,
      "ڶ": 562,
      "ں": 563,
      "ھ": 564,
      "ہ": 565,
      "ی": 566,
      "ے": 567,
      "ۡ": 568,
      "ۣ": 569,
      "۰": 570,
      "۱": 571,
      "۲": 572,
      "۳": 573,
      "۴": 574,
      "۵": 575,
      "۶": 576,
      "۸": 577,
      "۹": 578,
      "ۺ": 579,
      "ۿ": 580,
      "ܡ": 581,
      "ܲ": 582,
      "ܵ": 583,
      "ݵ": 584,
      "ݸ": 585,
      "޺": 586,
      "߲": 587,
      "ߵ": 588,
      "߶": 589,
      "߷": 590,
      "߹": 591,
      "߻": 592,
      "ࠬ": 593,
      "ं": 594,
      "अ": 595,
      "आ": 596,
      "क": 597,
      "ग": 598,
      "छ": 599,
      "ज": 600,
      "ट": 601,
      "ण": 602,
      "त": 603,
      "थ": 604,
      "द": 605,
      "न": 606,
      "प": 607,
      "ब": 608,
      "म": 609,
      "य": 610,
      "र": 611,
      "ल": 612,
      "स": 613,
      "ह": 614,
      "ा": 615,
      "ि": 616,
      "ी": 617,
      "ू": 618,
      "ृ": 619,
      "े": 620,
      "ै": 621,
      "ो": 622,
      "्": 623,
      "ॐ": 624,
      "०": 625,
      "२": 626,
      "४": 627,
      "५": 628,
      "ঁ": 629,
      "আ": 630,
      "ক": 631,
      "দ": 632,
      "ম": 633,
      "য": 634,
      "র": 635,
      "ল": 636,
      "স": 637,
      "া": 638,
      "ু": 639,
      "ে": 640,
      "্": 641,
      "୦": 642,
      "୧": 643,
      "୨": 644,
      "୫": 645,
      "୯": 646,
      "ಐ": 647,
      "ಯ": 648,
      "ರ": 649,
      "ವ": 650,
      "ಶ": 651,
      "ಾ": 652,
      "ೈ": 653,
      "್": 654,
      "೦": 655,
      "೧": 656,
      "೨": 657,
      "೪": 658,
      "೫": 659,
      "೭": 660,
      "೯": 661,
      "ം": 662,
      "മ": 663,
      "യ": 664,
      "ല": 665,
      "ള": 666,
      "ാ": 667,
      "ൺ": 668,
      "ก": 669,
      "ข": 670,
      "ค": 671,
      "ง": 672,
      "จ": 673,
      "ฉ": 674,
      "ช": 675,
      "ซ": 676,
      "ญ": 677,
      "ฏ": 678,
      "ณ": 679,
      "ด": 680,
      "ต": 681,
      "ถ": 682,
      "ท": 683,
      "ธ": 684,
      "น": 685,
      "บ": 686,
      "ป": 687,
      "ผ": 688,
      "ฝ": 689,
      "พ": 690,
      "ฟ": 691,
      "ภ": 692,
      "ม": 693,
      "ย": 694,
      "ร": 695,
      "ล": 696,
      "ว": 697,
      "ศ": 698,
      "ษ": 699,
      "ส": 700,
      "ห": 701,
      "อ": 702,
      "ะ": 703,
      "ั": 704,
      "า": 705,
      "ำ": 706,
      "ิ": 707,
      "ี": 708,
      "ึ": 709,
      "ื": 710,
      "ุ": 711,
      "ู": 712,
      "เ": 713,
      "แ": 714,
      "โ": 715,
      "ใ": 716,
      "ไ": 717,
      "ๆ": 718,
      "็": 719,
      "่": 720,
      "้": 721,
      "๊": 722,
      "์": 723,
      "๑": 724,
      "ྭ": 725,
      "ဪ": 726,
      "ိ": 727,
      "၄": 728,
      "ၛ": 729,
      "ၝ": 730,
      "ၡ": 731,
      "ၧ": 732,
      "ၱ": 733,
      "ა": 734,
      "ბ": 735,
      "გ": 736,
      "დ": 737,
      "ე": 738,
      "ვ": 739,
      "თ": 740,
      "ი": 741,
      "კ": 742,
      "ლ": 743,
      "მ": 744,
      "ნ": 745,
      "ო": 746,
      "პ": 747,
      "რ": 748,
      "ს": 749,
      "ტ": 750,
      "უ": 751,
      "ფ": 752,
      "ქ": 753,
      "ღ": 754,
      "შ": 755,
      "ც": 756,
      "ხ": 757,
      "ህ": 758,
      "መ": 759,
      "ም": 760,
      "ረ": 761,
      "ር": 762,
      "ስ": 763,
      "ሻ": 764,
      "ቀ": 765,
      "በ": 766,
      "ተ": 767,
      "ት": 768,
      "ቶ": 769,
      "አ": 770,
      "ኣ": 771,
      "እ": 772,
      "ኦ": 773,
      "ክ": 774,
      "ው": 775,
      "ዓ": 776,
      "የ": 777,
      "ይ": 778,
      "ገ": 779,
      "ጨ": 780,
      "ጽ": 781,
      "፣": 782,
      "ᐃ": 783,
      "ᐅ": 784,
      "ᐊ": 785,
      "ᐱ": 786,
      "ᐳ": 787,
      "ᐸ": 788,
      "ᑉ": 789,
      "ᑎ": 790,
      "ᑏ": 791,
      "ᑐ": 792,
      "ᑕ": 793,
      "ᑖ": 794,
      "ᑦ": 795,
      "ᑭ": 796,
      "ᑯ": 797,
      "ᑲ": 798,
      "ᒃ": 799,
      "ᒋ": 800,
      "ᒐ": 801,
      "ᒥ": 802,
      "ᒧ": 803,
      "ᒪ": 804,
      "ᒻ": 805,
      "ᓂ": 806,
      "ᓃ": 807,
      "ᓄ": 808,
      "ᓇ": 809,
      "ᓐ": 810,
      "ᓕ": 811,
      "ᓗ": 812,
      "ᓘ": 813,
      "ᓚ": 814,
      "ᓪ": 815,
      "ᓯ": 816,
      "ᓴ": 817,
      "ᔪ": 818,
      "ᔭ": 819,
      "ᔮ": 820,
      "ᔾ": 821,
      "ᕆ": 822,
      "ᕈ": 823,
      "ᕋ": 824,
      "ᕌ": 825,
      "ᕐ": 826,
      "ᕕ": 827,
      "ᕗ": 828,
      "ᕙ": 829,
      "ᕝ": 830,
      "ᖁ": 831,
      "ᖃ": 832,
      "ᖅ": 833,
      "ᖏ": 834,
      "ᖑ": 835,
      "ᖓ": 836,
      "ᖕ": 837,
      "ᖢ": 838,
      "ᴰ": 839,
      "ᴹ": 840,
      "ᵉ": 841,
      "ᵐ": 842,
      "ᵓ": 843,
      "ḍ": 844,
      "ḥ": 845,
      "ḫ": 846,
      "ḷ": 847,
      "ṃ": 848,
      "ṇ": 849,
      "ṣ": 850,
      "ṩ": 851,
      "ṭ": 852,
      "ṳ": 853,
      "ạ": 854,
      "ả": 855,
      "ấ": 856,
      "ầ": 857,
      "ẩ": 858,
      "ậ": 859,
      "ắ": 860,
      "ẳ": 861,
      "ặ": 862,
      "ẹ": 863,
      "ẻ": 864,
      "ẽ": 865,
      "ế": 866,
      "ề": 867,
      "ể": 868,
      "ễ": 869,
      "ệ": 870,
      "ỉ": 871,
      "ị": 872,
      "ọ": 873,
      "ỏ": 874,
      "ố": 875,
      "ồ": 876,
      "ổ": 877,
      "ỗ": 878,
      "ộ": 879,
      "ớ": 880,
      "ờ": 881,
      "ở": 882,
      "ỡ": 883,
      "ợ": 884,
      "ụ": 885,
      "ủ": 886,
      "ứ": 887,
      "ừ": 888,
      "ử": 889,
      "ữ": 890,
      "ự": 891,
      "ỳ": 892,
      "ỷ": 893,
      "ἀ": 894,
      "ἄ": 895,
      "ἰ": 896,
      "ὁ": 897,
      "ὺ": 898,
      "​": 899,
      "‌": 900,
      "‍": 901,
      "‎": 902,
      "‏": 903,
      "‐": 904,
      "‑": 905,
      "‒": 906,
      "–": 907,
      "—": 908,
      "―": 909,
      "‖": 910,
      "‘": 911,
      "’": 912,
      "‚": 913,
      "‛": 914,
      "“": 915,
      "”": 916,
      "„": 917,
      "‟": 918,
      "†": 919,
      "‡": 920,
      "•": 921,
      "‥": 922,
      "…": 923,
      "‧": 924,
      "‬": 925,
      "‭": 926,
      "‰": 927,
      "′": 928,
      "″": 929,
      "‹": 930,
      "›": 931,
      "※": 932,
      "‾": 933,
      "⁄": 934,
      "⁪": 935,
      "⁬": 936,
      "⁭": 937,
      "⁮": 938,
      "⁰": 939,
      "⁴": 940,
      "⁵": 941,
      "⁽": 942,
      "⁾": 943,
      "ⁿ": 944,
      "₂": 945,
      "₤": 946,
      "₩": 947,
      "€": 948,
      "℃": 949,
      "ℇ": 950,
      "ℓ": 951,
      "№": 952,
      "™": 953,
      "ℤ": 954,
      "⅓": 955,
      "⅔": 956,
      "⅛": 957,
      "⅜": 958,
      "⅝": 959,
      "⅞": 960,
      "ⅱ": 961,
      "←": 962,
      "↑": 963,
      "→": 964,
      "↓": 965,
      "↔": 966,
      "↕": 967,
      "↝": 968,
      "⇑": 969,
      "⇒": 970,
      "⇕": 971,
      "⇗": 972,
      "⇢": 973,
      "⇨": 974,
      "∀": 975,
      "∂": 976,
      "∅": 977,
      "∆": 978,
      "∇": 979,
      "∈": 980,
      "∏": 981,
      "∑": 982,
      "−": 983,
      "∗": 984,
      "∙": 985,
      "√": 986,
      "∞": 987,
      "∴": 988,
      "∶": 989,
      "∼": 990,
      "≅": 991,
      "≈": 992,
      "≠": 993,
      "≡": 994,
      "≤": 995,
      "≥": 996,
      "≪": 997,
      "≫": 998,
      "⊕": 999,
      "⊠": 1000,
      "⋅": 1001,
      "⌃": 1002,
      "⌘": 1003,
      "①": 1004,
      "②": 1005,
      "③": 1006,
      "─": 1007,
      "│": 1008,
      "╔": 1009,
      "╚": 1010,
      "╦": 1011,
      "╩": 1012,
      "╬": 1013,
      "▀": 1014,
      "░": 1015,
      "▒": 1016,
      "▓": 1017,
      "■": 1018,
      "□": 1019,
      "▧": 1020,
      "▪": 1021,
      "▲": 1022,
      "▷": 1023,
      "▸": 1024,
      "►": 1025,
      "▼": 1026,
      "◄": 1027,
      "◆": 1028,
      "◇": 1029,
      "◊": 1030,
      "○": 1031,
      "◎": 1032,
      "●": 1033,
      "◙": 1034,
      "◦": 1035,
      "☀": 1036,
      "★": 1037,
      "☆": 1038,
      "☎": 1039,
      "☑": 1040,
      "☼": 1041,
      "♀": 1042,
      "♕": 1043,
      "♠": 1044,
      "♣": 1045,
      "♥": 1046,
      "♦": 1047,
      "♪": 1048,
      "♫": 1049,
      "♲": 1050,
      "✓": 1051,
      "✔": 1052,
      "✕": 1053,
      "✿": 1054,
      "❋": 1055,
      "❏": 1056,
      "❑": 1057,
      "➟": 1058,
      "➢": 1059,
      "➣": 1060,
      "➲": 1061,
      "⡣": 1062,
      "⣬": 1063,
      "ⴃ": 1064,
      "ⴐ": 1065,
      "ⴑ": 1066,
      "ⴓ": 1067,
      "ⴗ": 1068,
      "ⴞ": 1069,
      "、": 1070,
      "。": 1071,
      "〈": 1072,
      "〉": 1073,
      "《": 1074,
      "》": 1075,
      "「": 1076,
      "」": 1077,
      "『": 1078,
      "』": 1079,
      "【": 1080,
      "】": 1081,
      "〜": 1082,
      "あ": 1083,
      "い": 1084,
      "う": 1085,
      "え": 1086,
      "お": 1087,
      "か": 1088,
      "が": 1089,
      "き": 1090,
      "ぎ": 1091,
      "く": 1092,
      "ぐ": 1093,
      "け": 1094,
      "げ": 1095,
      "こ": 1096,
      "ご": 1097,
      "さ": 1098,
      "ざ": 1099,
      "し": 1100,
      "じ": 1101,
      "す": 1102,
      "ず": 1103,
      "せ": 1104,
      "ぜ": 1105,
      "そ": 1106,
      "ぞ": 1107,
      "た": 1108,
      "だ": 1109,
      "ち": 1110,
      "っ": 1111,
      "つ": 1112,
      "て": 1113,
      "で": 1114,
      "と": 1115,
      "ど": 1116,
      "な": 1117,
      "に": 1118,
      "ぬ": 1119,
      "ね": 1120,
      "の": 1121,
      "は": 1122,
      "ば": 1123,
      "ひ": 1124,
      "び": 1125,
      "ふ": 1126,
      "ぶ": 1127,
      "へ": 1128,
      "べ": 1129,
      "ほ": 1130,
      "ぼ": 1131,
      "ぽ": 1132,
      "ま": 1133,
      "み": 1134,
      "む": 1135,
      "め": 1136,
      "も": 1137,
      "ゃ": 1138,
      "や": 1139,
      "ゆ": 1140,
      "ょ": 1141,
      "よ": 1142,
      "ら": 1143,
      "り": 1144,
      "る": 1145,
      "れ": 1146,
      "ろ": 1147,
      "わ": 1148,
      "を": 1149,
      "ん": 1150,
      "ァ": 1151,
      "ア": 1152,
      "ィ": 1153,
      "イ": 1154,
      "ウ": 1155,
      "エ": 1156,
      "ォ": 1157,
      "オ": 1158,
      "カ": 1159,
      "ガ": 1160,
      "キ": 1161,
      "ギ": 1162,
      "ク": 1163,
      "グ": 1164,
      "ケ": 1165,
      "ゲ": 1166,
      "コ": 1167,
      "ゴ": 1168,
      "サ": 1169,
      "ザ": 1170,
      "シ": 1171,
      "ジ": 1172,
      "ス": 1173,
      "ズ": 1174,
      "セ": 1175,
      "ゼ": 1176,
      "ソ": 1177,
      "ゾ": 1178,
      "タ": 1179,
      "ダ": 1180,
      "チ": 1181,
      "ッ": 1182,
      "ツ": 1183,
      "テ": 1184,
      "デ": 1185,
      "ト": 1186,
      "ド": 1187,
      "ナ": 1188,
      "ニ": 1189,
      "ヌ": 1190,
      "ネ": 1191,
      "ノ": 1192,
      "ハ": 1193,
      "バ": 1194,
      "パ": 1195,
      "ヒ": 1196,
      "ビ": 1197,
      "ピ": 1198,
      "フ": 1199,
      "ブ": 1200,
      "プ": 1201,
      "ヘ": 1202,
      "ベ": 1203,
      "ペ": 1204,
      "ホ": 1205,
      "ボ": 1206,
      "ポ": 1207,
      "マ": 1208,
      "ミ": 1209,
      "ム": 1210,
      "メ": 1211,
      "モ": 1212,
      "ャ": 1213,
      "ヤ": 1214,
      "ュ": 1215,
      "ユ": 1216,
      "ヨ": 1217,
      "ラ": 1218,
      "リ": 1219,
      "ル": 1220,
      "レ": 1221,
      "ロ": 1222,
      "ワ": 1223,
      "ン": 1224,
      "ヴ": 1225,
      "・": 1226,
      "ー": 1227,
      "ㄣ": 1228,
      "ㄤ": 1229,
      "ㄧ": 1230,
      "㣬": 1231,
      "㵼": 1232,
      "一": 1233,
      "七": 1234,
      "万": 1235,
      "丈": 1236,
      "三": 1237,
      "上": 1238,
      "下": 1239,
      "不": 1240,
      "与": 1241,
      "业": 1242,
      "东": 1243,
      "丨": 1244,
      "个": 1245,
      "中": 1246,
      "丸": 1247,
      "丹": 1248,
      "为": 1249,
      "主": 1250,
      "丽": 1251,
      "举": 1252,
      "久": 1253,
      "之": 1254,
      "乌": 1255,
      "乏": 1256,
      "乐": 1257,
      "乗": 1258,
      "九": 1259,
      "习": 1260,
      "书": 1261,
      "了": 1262,
      "予": 1263,
      "事": 1264,
      "二": 1265,
      "云": 1266,
      "互": 1267,
      "五": 1268,
      "井": 1269,
      "亚": 1270,
      "交": 1271,
      "产": 1272,
      "享": 1273,
      "京": 1274,
      "人": 1275,
      "仁": 1276,
      "今": 1277,
      "付": 1278,
      "仙": 1279,
      "代": 1280,
      "令": 1281,
      "以": 1282,
      "们": 1283,
      "仲": 1284,
      "件": 1285,
      "份": 1286,
      "伊": 1287,
      "休": 1288,
      "优": 1289,
      "会": 1290,
      "伝": 1291,
      "伴": 1292,
      "伸": 1293,
      "位": 1294,
      "住": 1295,
      "佐": 1296,
      "佑": 1297,
      "体": 1298,
      "余": 1299,
      "作": 1300,
      "佰": 1301,
      "佱": 1302,
      "佳": 1303,
      "例": 1304,
      "依": 1305,
      "価": 1306,
      "便": 1307,
      "俊": 1308,
      "保": 1309,
      "信": 1310,
      "修": 1311,
      "倍": 1312,
      "倒": 1313,
      "値": 1314,
      "偵": 1315,
      "傅": 1316,
      "儀": 1317,
      "儒": 1318,
      "元": 1319,
      "光": 1320,
      "克": 1321,
      "児": 1322,
      "入": 1323,
      "全": 1324,
      "八": 1325,
      "公": 1326,
      "六": 1327,
      "兰": 1328,
      "共": 1329,
      "关": 1330,
      "兵": 1331,
      "其": 1332,
      "内": 1333,
      "円": 1334,
      "册": 1335,
      "冠": 1336,
      "冤": 1337,
      "冲": 1338,
      "决": 1339,
      "凄": 1340,
      "几": 1341,
      "出": 1342,
      "分": 1343,
      "切": 1344,
      "列": 1345,
      "刘": 1346,
      "初": 1347,
      "別": 1348,
      "利": 1349,
      "别": 1350,
      "到": 1351,
      "制": 1352,
      "前": 1353,
      "剥": 1354,
      "力": 1355,
      "功": 1356,
      "加": 1357,
      "务": 1358,
      "势": 1359,
      "動": 1360,
      "勘": 1361,
      "務": 1362,
      "勢": 1363,
      "包": 1364,
      "化": 1365,
      "北": 1366,
      "区": 1367,
      "医": 1368,
      "匿": 1369,
      "十": 1370,
      "千": 1371,
      "升": 1372,
      "华": 1373,
      "卓": 1374,
      "南": 1375,
      "単": 1376,
      "博": 1377,
      "卡": 1378,
      "厂": 1379,
      "原": 1380,
      "去": 1381,
      "参": 1382,
      "及": 1383,
      "友": 1384,
      "収": 1385,
      "发": 1386,
      "取": 1387,
      "受": 1388,
      "叟": 1389,
      "口": 1390,
      "句": 1391,
      "只": 1392,
      "叫": 1393,
      "可": 1394,
      "台": 1395,
      "号": 1396,
      "合": 1397,
      "吊": 1398,
      "名": 1399,
      "向": 1400,
      "吗": 1401,
      "吧": 1402,
      "吴": 1403,
      "吹": 1404,
      "呂": 1405,
      "呆": 1406,
      "告": 1407,
      "周": 1408,
      "味": 1409,
      "呼": 1410,
      "和": 1411,
      "咬": 1412,
      "品": 1413,
      "哈": 1414,
      "唸": 1415,
      "商": 1416,
      "啦": 1417,
      "嗎": 1418,
      "嘉": 1419,
      "嘛": 1420,
      "噌": 1421,
      "器": 1422,
      "四": 1423,
      "回": 1424,
      "団": 1425,
      "囧": 1426,
      "园": 1427,
      "囲": 1428,
      "国": 1429,
      "图": 1430,
      "圆": 1431,
      "圍": 1432,
      "園": 1433,
      "土": 1434,
      "在": 1435,
      "地": 1436,
      "场": 1437,
      "址": 1438,
      "坂": 1439,
      "坐": 1440,
      "坑": 1441,
      "坛": 1442,
      "垂": 1443,
      "城": 1444,
      "埵": 1445,
      "堂": 1446,
      "場": 1447,
      "塾": 1448,
      "壊": 1449,
      "士": 1450,
      "壹": 1451,
      "备": 1452,
      "変": 1453,
      "外": 1454,
      "多": 1455,
      "夠": 1456,
      "大": 1457,
      "天": 1458,
      "太": 1459,
      "头": 1460,
      "夷": 1461,
      "奈": 1462,
      "奉": 1463,
      "套": 1464,
      "奥": 1465,
      "女": 1466,
      "奸": 1467,
      "好": 1468,
      "妖": 1469,
      "妻": 1470,
      "姫": 1471,
      "娜": 1472,
      "娱": 1473,
      "媛": 1474,
      "嫁": 1475,
      "嬉": 1476,
      "子": 1477,
      "字": 1478,
      "存": 1479,
      "孟": 1480,
      "学": 1481,
      "學": 1482,
      "宁": 1483,
      "它": 1484,
      "宇": 1485,
      "安": 1486,
      "宋": 1487,
      "官": 1488,
      "定": 1489,
      "宜": 1490,
      "宝": 1491,
      "実": 1492,
      "客": 1493,
      "室": 1494,
      "宫": 1495,
      "宮": 1496,
      "家": 1497,
      "容": 1498,
      "宾": 1499,
      "宿": 1500,
      "寄": 1501,
      "富": 1502,
      "實": 1503,
      "寸": 1504,
      "寺": 1505,
      "対": 1506,
      "寿": 1507,
      "将": 1508,
      "尊": 1509,
      "小": 1510,
      "尔": 1511,
      "尙": 1512,
      "就": 1513,
      "尾": 1514,
      "局": 1515,
      "屄": 1516,
      "屈": 1517,
      "届": 1518,
      "屋": 1519,
      "屑": 1520,
      "展": 1521,
      "山": 1522,
      "岐": 1523,
      "岛": 1524,
      "岡": 1525,
      "岩": 1526,
      "岭": 1527,
      "峪": 1528,
      "島": 1529,
      "崎": 1530,
      "川": 1531,
      "州": 1532,
      "巡": 1533,
      "工": 1534,
      "市": 1535,
      "师": 1536,
      "師": 1537,
      "席": 1538,
      "幌": 1539,
      "干": 1540,
      "平": 1541,
      "年": 1542,
      "幹": 1543,
      "广": 1544,
      "庁": 1545,
      "広": 1546,
      "庄": 1547,
      "庆": 1548,
      "店": 1549,
      "府": 1550,
      "度": 1551,
      "座": 1552,
      "庫": 1553,
      "庭": 1554,
      "康": 1555,
      "庸": 1556,
      "建": 1557,
      "开": 1558,
      "弄": 1559,
      "式": 1560,
      "引": 1561,
      "张": 1562,
      "强": 1563,
      "弾": 1564,
      "当": 1565,
      "形": 1566,
      "役": 1567,
      "征": 1568,
      "律": 1569,
      "後": 1570,
      "得": 1571,
      "御": 1572,
      "復": 1573,
      "徳": 1574,
      "德": 1575,
      "心": 1576,
      "必": 1577,
      "忆": 1578,
      "志": 1579,
      "忙": 1580,
      "応": 1581,
      "念": 1582,
      "忻": 1583,
      "态": 1584,
      "思": 1585,
      "怡": 1586,
      "急": 1587,
      "性": 1588,
      "总": 1589,
      "恢": 1590,
      "息": 1591,
      "悠": 1592,
      "悩": 1593,
      "情": 1594,
      "惯": 1595,
      "想": 1596,
      "愛": 1597,
      "感": 1598,
      "態": 1599,
      "慶": 1600,
      "憶": 1601,
      "成": 1602,
      "我": 1603,
      "戯": 1604,
      "戴": 1605,
      "戸": 1606,
      "所": 1607,
      "扈": 1608,
      "手": 1609,
      "才": 1610,
      "打": 1611,
      "执": 1612,
      "扬": 1613,
      "找": 1614,
      "技": 1615,
      "投": 1616,
      "折": 1617,
      "抜": 1618,
      "抵": 1619,
      "担": 1620,
      "拓": 1621,
      "拼": 1622,
      "持": 1623,
      "指": 1624,
      "挡": 1625,
      "挿": 1626,
      "损": 1627,
      "捷": 1628,
      "授": 1629,
      "排": 1630,
      "探": 1631,
      "推": 1632,
      "掻": 1633,
      "揃": 1634,
      "提": 1635,
      "換": 1636,
      "握": 1637,
      "援": 1638,
      "損": 1639,
      "搗": 1640,
      "搞": 1641,
      "摇": 1642,
      "撮": 1643,
      "操": 1644,
      "支": 1645,
      "改": 1646,
      "放": 1647,
      "政": 1648,
      "故": 1649,
      "敏": 1650,
      "教": 1651,
      "数": 1652,
      "整": 1653,
      "敷": 1654,
      "文": 1655,
      "斎": 1656,
      "斗": 1657,
      "斤": 1658,
      "新": 1659,
      "於": 1660,
      "施": 1661,
      "旅": 1662,
      "旗": 1663,
      "无": 1664,
      "日": 1665,
      "明": 1666,
      "星": 1667,
      "春": 1668,
      "昭": 1669,
      "是": 1670,
      "時": 1671,
      "晏": 1672,
      "普": 1673,
      "暂": 1674,
      "更": 1675,
      "書": 1676,
      "最": 1677,
      "月": 1678,
      "有": 1679,
      "朋": 1680,
      "服": 1681,
      "木": 1682,
      "本": 1683,
      "札": 1684,
      "术": 1685,
      "朱": 1686,
      "机": 1687,
      "权": 1688,
      "李": 1689,
      "村": 1690,
      "条": 1691,
      "来": 1692,
      "杨": 1693,
      "東": 1694,
      "松": 1695,
      "板": 1696,
      "析": 1697,
      "林": 1698,
      "枚": 1699,
      "枝": 1700,
      "架": 1701,
      "查": 1702,
      "柳": 1703,
      "柴": 1704,
      "栃": 1705,
      "标": 1706,
      "树": 1707,
      "株": 1708,
      "核": 1709,
      "根": 1710,
      "格": 1711,
      "案": 1712,
      "桓": 1713,
      "桜": 1714,
      "桢": 1715,
      "桥": 1716,
      "梨": 1717,
      "械": 1718,
      "梶": 1719,
      "棋": 1720,
      "森": 1721,
      "楠": 1722,
      "業": 1723,
      "楽": 1724,
      "様": 1725,
      "横": 1726,
      "橋": 1727,
      "檔": 1728,
      "次": 1729,
      "欢": 1730,
      "款": 1731,
      "歌": 1732,
      "止": 1733,
      "正": 1734,
      "步": 1735,
      "武": 1736,
      "歩": 1737,
      "死": 1738,
      "段": 1739,
      "殿": 1740,
      "比": 1741,
      "毛": 1742,
      "氏": 1743,
      "民": 1744,
      "气": 1745,
      "水": 1746,
      "永": 1747,
      "汁": 1748,
      "江": 1749,
      "池": 1750,
      "汤": 1751,
      "沒": 1752,
      "沖": 1753,
      "沢": 1754,
      "河": 1755,
      "油": 1756,
      "治": 1757,
      "況": 1758,
      "泉": 1759,
      "法": 1760,
      "波": 1761,
      "泥": 1762,
      "注": 1763,
      "泽": 1764,
      "洋": 1765,
      "洒": 1766,
      "洗": 1767,
      "洛": 1768,
      "津": 1769,
      "洪": 1770,
      "洱": 1771,
      "洲": 1772,
      "流": 1773,
      "浄": 1774,
      "浅": 1775,
      "浙": 1776,
      "浜": 1777,
      "浦": 1778,
      "海": 1779,
      "涂": 1780,
      "消": 1781,
      "涌": 1782,
      "涨": 1783,
      "深": 1784,
      "淹": 1785,
      "添": 1786,
      "清": 1787,
      "済": 1788,
      "渋": 1789,
      "温": 1790,
      "港": 1791,
      "游": 1792,
      "湖": 1793,
      "満": 1794,
      "溜": 1795,
      "溢": 1796,
      "滑": 1797,
      "滩": 1798,
      "漢": 1799,
      "漫": 1800,
      "灣": 1801,
      "火": 1802,
      "点": 1803,
      "為": 1804,
      "焚": 1805,
      "無": 1806,
      "焼": 1807,
      "照": 1808,
      "煮": 1809,
      "熨": 1810,
      "熱": 1811,
      "爪": 1812,
      "爱": 1813,
      "父": 1814,
      "片": 1815,
      "版": 1816,
      "牌": 1817,
      "牙": 1818,
      "物": 1819,
      "牵": 1820,
      "特": 1821,
      "状": 1822,
      "独": 1823,
      "猫": 1824,
      "献": 1825,
      "率": 1826,
      "玉": 1827,
      "王": 1828,
      "玩": 1829,
      "现": 1830,
      "玲": 1831,
      "珠": 1832,
      "球": 1833,
      "理": 1834,
      "琉": 1835,
      "琢": 1836,
      "琮": 1837,
      "琴": 1838,
      "璐": 1839,
      "甘": 1840,
      "甜": 1841,
      "生": 1842,
      "産": 1843,
      "用": 1844,
      "田": 1845,
      "由": 1846,
      "甲": 1847,
      "申": 1848,
      "电": 1849,
      "甸": 1850,
      "画": 1851,
      "番": 1852,
      "異": 1853,
      "畳": 1854,
      "畿": 1855,
      "痛": 1856,
      "痴": 1857,
      "白": 1858,
      "百": 1859,
      "的": 1860,
      "皇": 1861,
      "皮": 1862,
      "益": 1863,
      "目": 1864,
      "直": 1865,
      "相": 1866,
      "看": 1867,
      "県": 1868,
      "真": 1869,
      "眼": 1870,
      "着": 1871,
      "瞎": 1872,
      "知": 1873,
      "石": 1874,
      "硢": 1875,
      "示": 1876,
      "礼": 1877,
      "社": 1878,
      "祖": 1879,
      "祝": 1880,
      "神": 1881,
      "票": 1882,
      "祭": 1883,
      "禄": 1884,
      "福": 1885,
      "秉": 1886,
      "秋": 1887,
      "种": 1888,
      "科": 1889,
      "程": 1890,
      "稲": 1891,
      "空": 1892,
      "立": 1893,
      "站": 1894,
      "端": 1895,
      "竹": 1896,
      "笑": 1897,
      "第": 1898,
      "签": 1899,
      "简": 1900,
      "算": 1901,
      "管": 1902,
      "箱": 1903,
      "篆": 1904,
      "簡": 1905,
      "米": 1906,
      "类": 1907,
      "粉": 1908,
      "系": 1909,
      "紀": 1910,
      "純": 1911,
      "素": 1912,
      "紧": 1913,
      "細": 1914,
      "終": 1915,
      "経": 1916,
      "給": 1917,
      "網": 1918,
      "線": 1919,
      "編": 1920,
      "縄": 1921,
      "縮": 1922,
      "约": 1923,
      "级": 1924,
      "纪": 1925,
      "纱": 1926,
      "纸": 1927,
      "组": 1928,
      "经": 1929,
      "络": 1930,
      "绞": 1931,
      "绰": 1932,
      "编": 1933,
      "网": 1934,
      "罪": 1935,
      "置": 1936,
      "美": 1937,
      "群": 1938,
      "義": 1939,
      "翁": 1940,
      "習": 1941,
      "翴": 1942,
      "耀": 1943,
      "老": 1944,
      "考": 1945,
      "者": 1946,
      "聊": 1947,
      "肃": 1948,
      "肖": 1949,
      "背": 1950,
      "能": 1951,
      "脱": 1952,
      "腰": 1953,
      "腹": 1954,
      "臂": 1955,
      "自": 1956,
      "致": 1957,
      "舞": 1958,
      "航": 1959,
      "舫": 1960,
      "船": 1961,
      "良": 1962,
      "色": 1963,
      "艳": 1964,
      "节": 1965,
      "花": 1966,
      "苏": 1967,
      "若": 1968,
      "英": 1969,
      "茂": 1970,
      "范": 1971,
      "茅": 1972,
      "茨": 1973,
      "茶": 1974,
      "草": 1975,
      "荐": 1976,
      "荣": 1977,
      "获": 1978,
      "莹": 1979,
      "莽": 1980,
      "菩": 1981,
      "萧": 1982,
      "落": 1983,
      "葉": 1984,
      "蒋": 1985,
      "蒸": 1986,
      "蔓": 1987,
      "蔚": 1988,
      "蔵": 1989,
      "薩": 1990,
      "薬": 1991,
      "藤": 1992,
      "蘇": 1993,
      "虎": 1994,
      "虹": 1995,
      "蝦": 1996,
      "螳": 1997,
      "行": 1998,
      "衣": 1999,
      "表": 2000,
      "衫": 2001,
      "袍": 2002,
      "裁": 2003,
      "装": 2004,
      "裕": 2005,
      "製": 2006,
      "西": 2007,
      "覇": 2008,
      "親": 2009,
      "见": 2010,
      "视": 2011,
      "览": 2012,
      "角": 2013,
      "解": 2014,
      "言": 2015,
      "計": 2016,
      "記": 2017,
      "設": 2018,
      "認": 2019,
      "誕": 2020,
      "語": 2021,
      "誠": 2022,
      "護": 2023,
      "计": 2024,
      "议": 2025,
      "记": 2026,
      "许": 2027,
      "论": 2028,
      "设": 2029,
      "访": 2030,
      "证": 2031,
      "试": 2032,
      "诘": 2033,
      "话": 2034,
      "语": 2035,
      "谐": 2036,
      "谷": 2037,
      "豆": 2038,
      "象": 2039,
      "豱": 2040,
      "豸": 2041,
      "負": 2042,
      "財": 2043,
      "貸": 2044,
      "費": 2045,
      "賃": 2046,
      "賢": 2047,
      "贞": 2048,
      "贡": 2049,
      "财": 2050,
      "货": 2051,
      "购": 2052,
      "贱": 2053,
      "贳": 2054,
      "赌": 2055,
      "赛": 2056,
      "赠": 2057,
      "赤": 2058,
      "赵": 2059,
      "赶": 2060,
      "起": 2061,
      "超": 2062,
      "越": 2063,
      "足": 2064,
      "跋": 2065,
      "跨": 2066,
      "路": 2067,
      "車": 2068,
      "軍": 2069,
      "輿": 2070,
      "车": 2071,
      "载": 2072,
      "较": 2073,
      "辑": 2074,
      "辞": 2075,
      "辦": 2076,
      "込": 2077,
      "迅": 2078,
      "过": 2079,
      "迎": 2080,
      "近": 2081,
      "这": 2082,
      "连": 2083,
      "送": 2084,
      "适": 2085,
      "逃": 2086,
      "选": 2087,
      "透": 2088,
      "通": 2089,
      "逸": 2090,
      "遇": 2091,
      "遊": 2092,
      "道": 2093,
      "達": 2094,
      "遠": 2095,
      "遣": 2096,
      "還": 2097,
      "那": 2098,
      "邮": 2099,
      "邱": 2100,
      "郎": 2101,
      "部": 2102,
      "郭": 2103,
      "郷": 2104,
      "都": 2105,
      "鄉": 2106,
      "配": 2107,
      "酒": 2108,
      "醍": 2109,
      "醐": 2110,
      "采": 2111,
      "里": 2112,
      "重": 2113,
      "野": 2114,
      "金": 2115,
      "鍵": 2116,
      "鏡": 2117,
      "钓": 2118,
      "钦": 2119,
      "钧": 2120,
      "钱": 2121,
      "铭": 2122,
      "锋": 2123,
      "锚": 2124,
      "锦": 2125,
      "镜": 2126,
      "長": 2127,
      "門": 2128,
      "開": 2129,
      "間": 2130,
      "関": 2131,
      "閥": 2132,
      "關": 2133,
      "问": 2134,
      "间": 2135,
      "闻": 2136,
      "阅": 2137,
      "阜": 2138,
      "队": 2139,
      "阪": 2140,
      "防": 2141,
      "阳": 2142,
      "阴": 2143,
      "陀": 2144,
      "际": 2145,
      "陆": 2146,
      "陈": 2147,
      "降": 2148,
      "院": 2149,
      "除": 2150,
      "陰": 2151,
      "陳": 2152,
      "陶": 2153,
      "陽": 2154,
      "隆": 2155,
      "際": 2156,
      "雁": 2157,
      "雄": 2158,
      "集": 2159,
      "雑": 2160,
      "雛": 2161,
      "難": 2162,
      "雲": 2163,
      "零": 2164,
      "雷": 2165,
      "青": 2166,
      "静": 2167,
      "面": 2168,
      "音": 2169,
      "韶": 2170,
      "頂": 2171,
      "頃": 2172,
      "顶": 2173,
      "顾": 2174,
      "颖": 2175,
      "题": 2176,
      "風": 2177,
      "风": 2178,
      "飞": 2179,
      "食": 2180,
      "飬": 2181,
      "飼": 2182,
      "飾": 2183,
      "餅": 2184,
      "養": 2185,
      "館": 2186,
      "饭": 2187,
      "饰": 2188,
      "馆": 2189,
      "香": 2190,
      "馬": 2191,
      "駄": 2192,
      "駅": 2193,
      "騜": 2194,
      "魂": 2195,
      "鲁": 2196,
      "鵜": 2197,
      "鸣": 2198,
      "鹺": 2199,
      "麻": 2200,
      "黄": 2201,
      "黛": 2202,
      "齐": 2203,
      "龙": 2204,
      "가": 2205,
      "거": 2206,
      "것": 2207,
      "게": 2208,
      "결": 2209,
      "고": 2210,
      "공": 2211,
      "과": 2212,
      "관": 2213,
      "광": 2214,
      "교": 2215,
      "구": 2216,
      "국": 2217,
      "기": 2218,
      "끼": 2219,
      "나": 2220,
      "남": 2221,
      "년": 2222,
      "노": 2223,
      "는": 2224,
      "니": 2225,
      "다": 2226,
      "대": 2227,
      "던": 2228,
      "도": 2229,
      "둑": 2230,
      "뒤": 2231,
      "드": 2232,
      "든": 2233,
      "떨": 2234,
      "라": 2235,
      "랍": 2236,
      "랑": 2237,
      "런": 2238,
      "렉": 2239,
      "련": 2240,
      "로": 2241,
      "르": 2242,
      "를": 2243,
      "리": 2244,
      "마": 2245,
      "모": 2246,
      "몬": 2247,
      "무": 2248,
      "문": 2249,
      "미": 2250,
      "바": 2251,
      "밝": 2252,
      "배": 2253,
      "밴": 2254,
      "번": 2255,
      "법": 2256,
      "보": 2257,
      "본": 2258,
      "비": 2259,
      "쁜": 2260,
      "사": 2261,
      "상": 2262,
      "서": 2263,
      "선": 2264,
      "세": 2265,
      "소": 2266,
      "스": 2267,
      "시": 2268,
      "아": 2269,
      "안": 2270,
      "알": 2271,
      "어": 2272,
      "없": 2273,
      "에": 2274,
      "여": 2275,
      "역": 2276,
      "영": 2277,
      "올": 2278,
      "우": 2279,
      "위": 2280,
      "을": 2281,
      "음": 2282,
      "의": 2283,
      "이": 2284,
      "임": 2285,
      "입": 2286,
      "자": 2287,
      "장": 2288,
      "전": 2289,
      "제": 2290,
      "져": 2291,
      "지": 2292,
      "진": 2293,
      "짜": 2294,
      "찌": 2295,
      "책": 2296,
      "척": 2297,
      "최": 2298,
      "칫": 2299,
      "코": 2300,
      "콨": 2301,
      "트": 2302,
      "평": 2303,
      "프": 2304,
      "하": 2305,
      "학": 2306,
      "한": 2307,
      "합": 2308,
      "해": 2309,
      "화": 2310,
      "힌": 2311,
      "": 2312,
      "": 2313,
      "": 2314,
      "": 2315,
      "": 2316,
      "": 2317,
      "": 2318,
      "": 2319,
      "": 2320,
      "": 2321,
      "": 2322,
      "": 2323,
      "": 2324,
      "": 2325,
      "": 2326,
      "": 2327,
      "": 2328,
      "": 2329,
      "": 2330,
      "": 2331,
      "": 2332,
      "": 2333,
      "": 2334,
      "": 2335,
      "": 2336,
      "": 2337,
      "": 2338,
      "": 2339,
      "": 2340,
      "": 2341,
      "": 2342,
      "": 2343,
      "": 2344,
      "": 2345,
      "": 2346,
      "": 2347,
      "": 2348,
      "": 2349,
      "": 2350,
      "": 2351,
      "": 2352,
      "": 2353,
      "": 2354,
      "": 2355,
      "": 2356,
      "": 2357,
      "": 2358,
      "": 2359,
      "": 2360,
      "": 2361,
      "": 2362,
      "": 2363,
      "": 2364,
      "": 2365,
      "": 2366,
      "": 2367,
      "": 2368,
      "": 2369,
      "": 2370,
      "": 2371,
      "": 2372,
      "": 2373,
      "": 2374,
      "": 2375,
      "": 2376,
      "": 2377,
      "": 2378,
      "": 2379,
      "": 2380,
      "": 2381,
      "": 2382,
      "": 2383,
      "": 2384,
      "": 2385,
      "": 2386,
      "": 2387,
      "": 2388,
      "": 2389,
      "": 2390,
      "": 2391,
      "": 2392,
      "": 2393,
      "": 2394,
      "ﬁ": 2395,
      "ﬂ": 2396,
      "ﬄ": 2397,
      "﴾": 2398,
      "﴿": 2399,
      "﷓": 2400,
      "︰": 2401,
      "﹏": 2402,
      "﹝": 2403,
      "﹞": 2404,
      "﻿": 2405,
      "！": 2406,
      "％": 2407,
      "（": 2408,
      "）": 2409,
      "＊": 2410,
      "，": 2411,
      "－": 2412,
      "．": 2413,
      "：": 2414,
      "；": 2415,
      "＝": 2416,
      "？": 2417,
      "＾": 2418,
      "ａ": 2419,
      "ｎ": 2420,
      "ｐ": 2421,
      "ｓ": 2422,
      "､": 2423,
      "ｰ": 2424,
      "￡": 2425,
      "�": 2426,
      "𐌰": 2427,
      "𐌴": 2428,
      "𐌸": 2429,
      "𐌼": 2430,
      "𐌽": 2431,
      "𐍃": 2432,
      "𐍉": 2433,
      "𣿿": 2434,
      "񣬰": 2435,
      "񼰺": 2436,
      "󻯣": 2437,
      "##i": 2438,
      "##c": 2439,
      "##k": 2440,
      "##j": 2441,
      "##o": 2442,
      "##n": 2443,
      "##a": 2444,
      "##s": 2445,
      "##_": 2446,
      "##y": 2447,
      "##e": 2448,
      "##ő": 2449,
      "##v": 2450,
      "##ö": 2451,
      "##l": 2452,
      "##d": 2453,
      "##r": 2454,
      "##m": 2455,
      "##u": 2456,
      "##é": 2457,
      "##h": 2458,
      "##t": 2459,
      "##1": 2460,
      "##7": 2461,
      "##9": 2462,
      "##g": 2463,
      "##*": 2464,
      "##(": 2465,
      "##)": 2466,
      "##p": 2467,
      "##b": 2468,
      "##ã": 2469,
      "##w": 2470,
      "##ż": 2471,
      "##z": 2472,
      "##q": 2473,
      "##î": 2474,
      "##0": 2475,
      "##f": 2476,
      "##4": 2477,
      "##á": 2478,
      "##2": 2479,
      "##8": 2480,
      "##6": 2481,
      "##û": 2482,
      "##3": 2483,
      "##è": 2484,
      "##x": 2485,
      "##リ": 2486,
      "##不": 2487,
      "##動": 2488,
      "##産": 2489,
      "##ê": 2490,
      "##5": 2491,
      "##ł": 2492,
      "##ز": 2493,
      "##ا": 2494,
      "##ر": 2495,
      "##ة": 2496,
      "##ü": 2497,
      "##â": 2498,
      "##σ": 2499,
      "##,": 2500,
      "##£": 2501,
      "##š": 2502,
      "##ó": 2503,
      "##ú": 2504,
      "##ñ": 2505,
      "##г": 2506,
      "##є": 2507,
      "##ô": 2508,
      "##ş": 2509,
      "##ç": 2510,
      "##ı": 2511,
      "##у": 2512,
      "##з": 2513,
      "##ы": 2514,
      "##к": 2515,
      "##а": 2516,
      "##н": 2517,
      "##т": 2518,
      "##‘": 2519,
      "##-": 2520,
      "##и": 2521,
      "##м": 2522,
      "##æ": 2523,
      "##强": 2524,
      "##民": 2525,
      "##主": 2526,
      "##文": 2527,
      "##明": 2528,
      "##和": 2529,
      "##谐": 2530,
      "##à": 2531,
      "##.": 2532,
      "##í": 2533,
      "##о": 2534,
      "##р": 2535,
      "##ь": 2536,
      "##б": 2537,
      "##ň": 2538,
      "##ä": 2539,
      "##в": 2540,
      "##ل": 2541,
      "##ت": 2542,
      "##å": 2543,
      "##ò": 2544,
      "##ð": 2545,
      "##ë": 2546,
      "##ï": 2547,
      "##õ": 2548,
      "##:": 2549,
      "##й": 2550,
      "##ё": 2551,
      "##ņ": 2552,
      "##φ": 2553,
      "##ά": 2554,
      "##λ": 2555,
      "##ε": 2556,
      "##ι": 2557,
      "##α": 2558,
      "##ъ": 2559,
      "##я": 2560,
      "##č": 2561,
      "##ك": 2562,
      "##…": 2563,
      "##х": 2564,
      "##д": 2565,
      "##л": 2566,
      "##”": 2567,
      "##$": 2568,
      "##щ": 2569,
      "##е": 2570,
      "##\"": 2571,
      "##ү": 2572,
      "##һ": 2573,
      "##ә": 2574,
      "##с": 2575,
      "##™": 2576,
      "##ě": 2577,
      "##ý": 2578,
      "##ė": 2579,
      "##]": 2580,
      "##و": 2581,
      "##ن": 2582,
      "##þ": 2583,
      "##ÿ": 2584,
      "##石": 2585,
      "##ì": 2586,
      "##ж": 2587,
      "##=": 2588,
      "##ž": 2589,
      "##ę": 2590,
      "##ß": 2591,
      "##ø": 2592,
      "##ř": 2593,
      "##ع": 2594,
      "##م": 2595,
      "##ą": 2596,
      "##ù": 2597,
      "##啦": 2598,
      "##୦": 2599,
      "##୯": 2600,
      "##ц": 2601,
      "##ш": 2602,
      "##+": 2603,
      "##'": 2604,
      "##茅": 2605,
      "##ґ": 2606,
      "##ي": 2607,
      "##/": 2608,
      "##ї": 2609,
      "##€": 2610,
      "##!": 2611,
      "##ª": 2612,
      "##ū": 2613,
      "##?": 2614,
      "##ā": 2615,
      "##ک": 2616,
      "##ē": 2617,
      "##º": 2618,
      "##成": 2619,
      "##の": 2620,
      "##異": 2621,
      "##端": 2622,
      "##児": 2623,
      "##集": 2624,
      "##団": 2625,
      "##»": 2626,
      "##ض": 2627,
      "##غ": 2628,
      "##ط": 2629,
      "##ś": 2630,
      "##ć": 2631,
      "##ʼ": 2632,
      "##ğ": 2633,
      "##ј": 2634,
      "##ѓ": 2635,
      "##ћ": 2636,
      "##ρ": 2637,
      "##γ": 2638,
      "##ί": 2639,
      "##ς": 2640,
      "##ŕ": 2641,
      "##ф": 2642,
      "##ذ": 2643,
      "##’": 2644,
      "##ч": 2645,
      "##њ": 2646,
      "##п": 2647,
      "##ю": 2648,
      "##[": 2649,
      "##έ": 2650,
      "##τ": 2651,
      "##د": 2652,
      "##ă": 2653,
      "##ń": 2654,
      "##أ": 2655,
      "##س": 2656,
      "##і": 2657,
      "##": 2658,
      "##¨": 2659,
      "##“": 2660,
      "##ẽ": 2661,
      "##‰": 2662,
      "##|": 2663,
      "##ţ": 2664,
      "##>": 2665,
      "##ث": 2666,
      "##ق": 2667,
      "##џ": 2668,
      "##ђ": 2669,
      "##ľ": 2670,
      "##ش": 2671,
      "##ο": 2672,
      "##ō": 2673,
      "##ở": 2674,
      "##;": 2675,
      "##љ": 2676,
      "##²": 2677,
      "##œ": 2678,
      "##ָ": 2679,
      "##ק": 2680,
      "##ט": 2681,
      "##א": 2682,
      "##ב": 2683,
      "##ע": 2684,
      "##ר": 2685,
      "##郷": 2686,
      "##η": 2687,
      "##β": 2688,
      "##ͨ": 2689,
      "##◊": 2690,
      "##§": 2691,
      "##藤": 2692,
      "##西": 2693,
      "##µ": 2694,
      "##¸": 2695,
      "##°": 2696,
      "##đ": 2697,
      "##ế": 2698,
      "###": 2699,
      "##ź": 2700,
      "##κ": 2701,
      "##ή": 2702,
      "##¯": 2703,
      "##}": 2704,
      "##ќ": 2705,
      "##¢": 2706,
      "##ب": 2707,
      "##年": 2708,
      "##«": 2709,
      "##甸": 2710,
      "##岛": 2711,
      "##э": 2712,
      "##ه": 2713,
      "##ئ": 2714,
      "##±": 2715,
      "##ی": 2716,
      "##ح": 2717,
      "##إ": 2718,
      "##—": 2719,
      "##": 2720,
      "##ṭ": 2721,
      "##ό": 2722,
      "##χ": 2723,
      "##υ": 2724,
      "##μ": 2725,
      "##ű": 2726,
      "##ų": 2727,
      "##ν": 2728,
      "##&": 2729,
      "##̇": 2730,
      "##`": 2731,
      "##的": 2732,
      "##功": 2733,
      "##能": 2734,
      "##ω": 2735,
      "##ũ": 2736,
      "##ƒ": 2737,
      "##¥": 2738,
      "##ů": 2739,
      "##♥": 2740,
      "##山": 2741,
      "##医": 2742,
      "##院": 2743,
      "##ĕ": 2744,
      "##ﬁ": 2745,
      "##ʺ": 2746,
      "##¹": 2747,
      "##ậ": 2748,
      "##ị": 2749,
      "##´": 2750,
      "##": 2751,
      "##\\": 2752,
      "##%": 2753,
      "##二": 2754,
      "##八": 2755,
      "##事": 2756,
      "##件": 2757,
      "##本": 2758,
      "##は": 2759,
      "##こ": 2760,
      "##れ": 2761,
      "##か": 2762,
      "##ら": 2763,
      "##ど": 2764,
      "##う": 2765,
      "##な": 2766,
      "##る": 2767,
      "##ġ": 2768,
      "##ร": 2769,
      "##ี": 2770,
      "##�": 2771,
      "##^": 2772,
      "##ج": 2773,
      "##ў": 2774,
      "##خ": 2775,
      "##ď": 2776,
      "##̍": 2777,
      "##ī": 2778,
      "##~": 2779,
      "##{": 2780,
      "##→": 2781,
      "##∗": 2782,
      "##色": 2783,
      "##图": 2784,
      "##ŏ": 2785,
      "##θ": 2786,
      "##π": 2787,
      "##楽": 2788,
      "##正": 2789,
      "##体": 2790,
      "##中": 2791,
      "##": 2792,
      "##ف": 2793,
      "##น": 2794,
      "##้": 2795,
      "##า": 2796,
      "##จ": 2797,
      "##อ": 2798,
      "##ะ": 2799,
      "##ใ": 2800,
      "##ห": 2801,
      "##ญ": 2802,
      "##่": 2803,
      "##เ": 2804,
      "##ป": 2805,
      "##็": 2806,
      "##−": 2807,
      "##¿": 2808,
      "##¡": 2809,
      "##幌": 2810,
      "##越": 2811,
      "##ħ": 2812,
      "##ȣ": 2813,
      "##@": 2814,
      "##ص": 2815,
      "##ộ": 2816,
      "##ม": 2817,
      "##": 2818,
      "##席": 2819,
      "##纪": 2820,
      "##念": 2821,
      "##堂": 2822,
      "##ǎ": 2823,
      "##": 2824,
      "##分": 2825,
      "##": 2826,
      "##ǔ": 2827,
      "##ษ": 2828,
      "##ไ": 2829,
      "##ท": 2830,
      "##ย": 2831,
      "##ᓚ": 2832,
      "##ᑖ": 2833,
      "##ᓄ": 2834,
      "##ᓪ": 2835,
      "##ᓘ": 2836,
      "##ᓐ": 2837,
      "##ᓃ": 2838,
      "##ᑦ": 2839,
      "##۲": 2840,
      "##記": 2841,
      "##に": 2842,
      "##コ": 2843,
      "##メ": 2844,
      "##ン": 2845,
      "##ト": 2846,
      "##す": 2847,
      "##ΐ": 2848,
      "##ُ": 2849,
      "##ْ": 2850,
      "##َ": 2851,
      "##ၱ": 2852,
      "##ى": 2853,
      "##צ": 2854,
      "##ค": 2855,
      "##ิ": 2856,
      "##ด": 2857,
      "##ก": 2858,
      "##ง": 2859,
      "##ส": 2860,
      "##ั": 2861,
      "##บ": 2862,
      "##ว": 2863,
      "##ข": 2864,
      "##แ": 2865,
      "##พ": 2866,
      "##פ": 2867,
      "##ת": 2868,
      "##י": 2869,
      "##ื": 2870,
      "##ư": 2871,
      "##߶": 2872,
      "##୨": 2873,
      "##δ": 2874,
      "##ǽ": 2875,
      "##ّ": 2876,
      "##־": 2877,
      "##店": 2878,
      "##管": 2879,
      "##了": 2880,
      "##ť": 2881,
      "##›": 2882,
      "##ﬂ": 2883,
      "##": 2884,
      "##ξ": 2885,
      "##ĝ": 2886,
      "##川": 2887,
      "##家": 2888,
      "##康": 2889,
      "##代": 2890,
      "##法": 2891,
      "##学": 2892,
      "##چ": 2893,
      "##表": 2894,
      "##さ": 2895,
      "##ま": 2896,
      "##㣬": 2897,
      "##장": 2898,
      "##과": 2899,
      "##沢": 2900,
      "##〉": 2901,
      "##海": 2902,
      "##道": 2903,
      "##之": 2904,
      "##ύ": 2905,
      "##ϋ": 2906,
      "##★": 2907,
      "##整": 2908,
      "##理": 2909,
      "##ל": 2910,
      "##כ": 2911,
      "##ס": 2912,
      "##נ": 2913,
      "##ד": 2914,
      "##–": 2915,
      "##ظ": 2916,
      "##暂": 2917,
      "##ء": 2918,
      "##ـ": 2919,
      "##ً": 2920,
      "##ғ": 2921,
      "##溢": 2922,
      "##ん": 2923,
      "##た": 2924,
      "##い": 2925,
      "##し": 2926,
      "##り": 2927,
      "##ɣ": 2928,
      "##ぐ": 2929,
      "##く": 2930,
      "##頃": 2931,
      "##": 2932,
      "##‐": 2933,
      "##년": 2934,
      "##ล": 2935,
      "##ช": 2936,
      "##‡": 2937,
      "##<": 2938,
      "##ț": 2939,
      "##‌": 2940,
      "##라": 2941,
      "##남": 2942,
      "##도": 2943,
      "##ǿ": 2944,
      "##庆": 2945,
      "##火": 2946,
      "##车": 2947,
      "##北": 2948,
      "##站": 2949,
      "##態": 2950,
      "##心": 2951,
      "##保": 2952,
      "##政": 2953,
      "##奉": 2954,
      "##還": 2955,
      "##一": 2956,
      "##局": 2957,
      "##어": 2958,
      "##（": 2959,
      "##＾": 2960,
      "##ạ": 2961,
      "##三": 2962,
      "##路": 2963,
      "##ƶ": 2964,
      "##ѕ": 2965,
      "##ώ": 2966,
      "##台": 2967,
      "##松": 2968,
      "##粉": 2969,
      "##ה": 2970,
      "##ו": 2971,
      "##广": 2972,
      "##场": 2973,
      "##扬": 2974,
      "##ϊ": 2975,
      "##ĺ": 2976,
      "##老": 2977,
      "##­": 2978,
      "##ǒ": 2979,
      "##½": 2980,
      "##久": 2981,
      "##神": 2982,
      "##殿": 2983,
      "##©": 2984,
      "##¦": 2985,
      "##都": 2986,
      "##宮": 2987,
      "##ͺ": 2988,
      "##ℓ": 2989,
      "##ļ": 2990,
      "##ệ": 2991,
      "##ə": 2992,
      "##®": 2993,
      "##ợ": 2994,
      "##ლ": 2995,
      "##ე": 2996,
      "##ქ": 2997,
      "##ს": 2998,
      "##ა": 2999,
      "##ნ": 3000,
      "##დ": 3001,
      "##რ": 3002,
      "##ุ": 3003,
      "##โ": 3004,
      "##馬": 3005,
      "##끼": 3006,
      "##를": 3007,
      "##戯": 3008,
      "##王": 3009,
      "##국": 3010,
      "##音": 3011,
      "##ミ": 3012,
      "##ク": 3013,
      "##": 3014,
      "##ķ": 3015,
      "##ِ": 3016,
      "##ʒ": 3017,
      "##持": 3018,
      "##ơ": 3019,
      "##豆": 3020,
      "##除": 3021,
      "##依": 3022,
      "##ג": 3023,
      "##薬": 3024,
      "##品": 3025,
      "##ˆ": 3026,
      "##": 3027,
      "##": 3028,
      "##": 3029,
      "##‛": 3030,
      "##′": 3031,
      "##ψ": 3032,
      "##闻": 3033,
      "##取": 3034,
      "##์": 3035,
      "##ต": 3036,
      "##ซ": 3037,
      "##ᒃ": 3038,
      "##ᓯ": 3039,
      "##ᕌ": 3040,
      "##ᖃ": 3041,
      "##ᕈ": 3042,
      "##ᓇ": 3043,
      "##ᕐ": 3044,
      "##ᓂ": 3045,
      "##ᐊ": 3046,
      "##ᒪ": 3047,
      "##ᑕ": 3048,
      "##解": 3049,
      "##更": 3050,
      "##多": 3051,
      "##有": 3052,
      "##关": 3053,
      "##点": 3054,
      "##内": 3055,
      "##容": 3056,
      "##‚": 3057,
      "##子": 3058,
      "##商": 3059,
      "##务": 3060,
      "##示": 3061,
      "##范": 3062,
      "##万": 3063,
      "##人": 3064,
      "##受": 3065,
      "##け": 3066,
      "##で": 3067,
      "##関": 3068,
      "##て": 3069,
      "##考": 3070,
      "##え": 3071,
      "##ศ": 3072,
      "##回": 3073,
      "##去": 3074,
      "##˙": 3075,
      "##ӫ": 3076,
      "##草": 3077,
      "##寺": 3078,
      "##洱": 3079,
      "##ζ": 3080,
      "##ဪ": 3081,
      "##足": 3082,
      "##太": 3083,
      "##礼": 3084,
      "##刘": 3085,
      "##静": 3086,
      "##怡": 3087,
      "##ा": 3088,
      "##ब": 3089,
      "##र": 3090,
      "##ि": 3091,
      "##य": 3092,
      "##ხ": 3093,
      "##建": 3094,
      "##益": 3095,
      "##ー": 3096,
      "##ル": 3097,
      "##清": 3098,
      "##į": 3099,
      "##ז": 3100,
      "##吧": 3101,
      "##も": 3102,
      "##天": 3103,
      "##皇": 3104,
      "##†": 3105,
      "##ⴞ": 3106,
      "##∂": 3107,
      "##¼": 3108,
      "##顶": 3109,
      "##˾": 3110,
      "##阳": 3111,
      "##¤": 3112,
      "##野": 3113,
      "##ể": 3114,
      "##ș": 3115,
      "##ᕋ": 3116,
      "##ᐅ": 3117,
      "##ᑏ": 3118,
      "##饭": 3119,
      "##根": 3120,
      "##飞": 3121,
      "##ԥ": 3122,
      "##́": 3123,
      "##赤": 3124,
      "##岭": 3125,
      "##우": 3126,
      "##기": 3127,
      "##き": 3128,
      "##御": 3129,
      "##座": 3130,
      "##画": 3131,
      "##•": 3132,
      "##،": 3133,
      "##∙": 3134,
      "##夷": 3135,
      "##大": 3136,
      "##将": 3137,
      "##軍": 3138,
      "##奸": 3139,
      "##̤": 3140,
      "##მ": 3141,
      "##冤": 3142,
      "##死": 3143,
      "##茂": 3144,
      "##楠": 3145,
      "##加": 3146,
      "##油": 3147,
      "##„": 3148,
      "##ứ": 3149,
      "##역": 3150,
      "##자": 3151,
      "##의": 3152,
      "##ᐳ": 3153,
      "##ᒻ": 3154,
      "##ᒥ": 3155,
      "##ᖅ": 3156,
      "##ᖏ": 3157,
      "##ᑭ": 3158,
      "##ᒧ": 3159,
      "##ᑎ": 3160,
      "##ℇ": 3161,
      "##ố": 3162,
      "##ण": 3163,
      "##प": 3164,
      "##द": 3165,
      "##्": 3166,
      "##म": 3167,
      "##े": 3168,
      "##ह": 3169,
      "##ू": 3170,
      "##ɳ": 3171,
      "##آ": 3172,
      "##둑": 3173,
      "##ŵ": 3174,
      "##ょ": 3175,
      "##せ": 3176,
      "##↓": 3177,
      "##구": 3178,
      "##광": 3179,
      "##시": 3180,
      "##が": 3181,
      "##ひ": 3182,
      "##न": 3183,
      "##ं": 3184,
      "##地": 3185,
      "##利": 3186,
      "##行": 3187,
      "##遇": 3188,
      "##到": 3189,
      "##最": 3190,
      "##好": 3191,
      "##住": 3192,
      "##宿": 3193,
      "##テ": 3194,
      "##ィ": 3195,
      "##ガ": 3196,
      "##イ": 3197,
      "##ド": 3198,
      "##¬": 3199,
      "##记": 3200,
      "##몬": 3201,
      "##米": 3202,
      "##秉": 3203,
      "##官": 3204,
      "##‑": 3205,
      "##÷": 3206,
      "##案": 3207,
      "##沒": 3208,
      "##辦": 3209,
      "##寄": 3210,
      "##給": 3211,
      "##朋": 3212,
      "##友": 3213,
      "##嗎": 3214,
      "##ၝ": 3215,
      "##网": 3216,
      "##空": 3217,
      "##兰": 3218,
      "##钦": 3219,
      "##郭": 3220,
      "##冠": 3221,
      "##英": 3222,
      "##ģ": 3223,
      "##ؤ": 3224,
      "##ĉ": 3225,
      "##逸": 3226,
      "##۰": 3227,
      "##۹": 3228,
      "##": 3229,
      "##吗": 3230,
      "##璐": 3231,
      "##核": 3232,
      "##ゃ": 3233,
      "##ল": 3234,
      "##ে": 3235,
      "##ক": 3236,
      "##্": 3237,
      "##স": 3238,
      "##া": 3239,
      "##ঁ": 3240,
      "##দ": 3241,
      "##র": 3242,
      "##ȗ": 3243,
      "##ᵉ": 3244,
      "##ɑ": 3245,
      "##ː": 3246,
      "##妻": 3247,
      "##소": 3248,
      "##로": 3249,
      "##ầ": 3250,
      "##升": 3251,
      "##出": 3252,
      "##迎": 3253,
      "##ᕆ": 3254,
      "##ᔭ": 3255,
      "##ณ": 3256,
      "##ู": 3257,
      "##萧": 3258,
      "##洒": 3259,
      "##つ": 3260,
      "##わ": 3261,
      "##钱": 3262,
      "##ო": 3263,
      "##式": 3264,
      "##会": 3265,
      "##社": 3266,
      "##ス": 3267,
      "##タ": 3268,
      "##ジ": 3269,
      "##オ": 3270,
      "##ブ": 3271,
      "##用": 3272,
      "##ᔮ": 3273,
      "##ᕗ": 3274,
      "##무": 3275,
      "##런": 3276,
      "##直": 3277,
      "##送": 3278,
      "##ỳ": 3279,
      "##吴": 3280,
      "##宝": 3281,
      "##玉": 3282,
      "##李": 3283,
      "##锋": 3284,
      "##ผ": 3285,
      "##ถ": 3286,
      "##ẩ": 3287,
      "##·": 3288,
      "##│": 3289,
      "##╚": 3290,
      "##ן": 3291,
      "##세": 3292,
      "##洪": 3293,
      "##届": 3294,
      "##ש": 3295,
      "##美": 3296,
      "##味": 3297,
      "##ำ": 3298,
      "##ึ": 3299,
      "##名": 3300,
      "##探": 3301,
      "##偵": 3302,
      "##ポ": 3303,
      "##ア": 3304,
      "##ロ": 3305,
      "##と": 3306,
      "##マ": 3307,
      "##プ": 3308,
      "##苏": 3309,
      "##純": 3310,
      "##済": 3311,
      "##ң": 3312,
      "##撮": 3313,
      "##³": 3314,
      "##猫": 3315,
      "##自": 3316,
      "##便": 3317,
      "##×": 3318,
      "##": 3319,
      "##ϵ": 3320,
      "##網": 3321,
      "##址": 3322,
      "##夠": 3323,
      "##看": 3324,
      "##¶": 3325,
      "##十": 3326,
      "##": 3327,
      "##州": 3328,
      "##": 3329,
      "##器": 3330,
      "##∆": 3331,
      "##壊": 3332,
      "##場": 3333,
      "##合": 3334,
      "##ṳ": 3335,
      "##̆": 3336,
      "##城": 3337,
      "##ጽ": 3338,
      "##ŭ": 3339,
      "##گ": 3340,
      "##耀": 3341,
      "##仁": 3342,
      "##施": 3343,
      "##放": 3344,
      "##气": 3345,
      "##球": 3346,
      "##척": 3347,
      "##하": 3348,
      "##‎": 3349,
      "##♦": 3350,
      "##ɪ": 3351,
      "##ɔ": 3352,
      "##ᐃ": 3353,
      "##ᖕ": 3354,
      "##랑": 3355,
      "##스": 3356,
      "##에": 3357,
      "##서": 3358,
      "##囧": 3359,
      "##別": 3360,
      "##デ": 3361,
      "##套": 3362,
      "##爪": 3363,
      "##琴": 3364,
      "##知": 3365,
      "##背": 3366,
      "##ĩ": 3367,
      "##见": 3368,
      "##逃": 3369,
      "##庭": 3370,
      "##教": 3371,
      "##師": 3372,
      "##ヒ": 3373,
      "##ッ": 3374,
      "##木": 3375,
      "##ᓴ": 3376,
      "##ᔾ": 3377,
      "##ᔪ": 3378,
      "##武": 3379,
      "##": 3380,
      "##签": 3381,
      "##府": 3382,
      "##″": 3383,
      "##˲": 3384,
      "##מ": 3385,
      "##情": 3386,
      "##特": 3387,
      "##急": 3388,
      "##丹": 3389,
      "##田": 3390,
      "##カ": 3391,
      "##≤": 3392,
      "##森": 3393,
      "##崎": 3394,
      "##": 3395,
      "##۳": 3396,
      "##ӣ": 3397,
      "##": 3398,
      "##ם": 3399,
      "##ɛ": 3400,
      "##ʀ": 3401,
      "##切": 3402,
      "##腹": 3403,
      "##衣": 3404,
      "##干": 3405,
      "##洗": 3406,
      "##机": 3407,
      "##设": 3408,
      "##备": 3409,
      "##코": 3410,
      "##노": 3411,
      "##미": 3412,
      "##트": 3413,
      "##안": 3414,
      "##ネ": 3415,
      "##阪": 3416,
      "##ˈ": 3417,
      "##ɲ": 3418,
      "##ہ": 3419,
      "##汤": 3420,
      "##設": 3421,
      "##定": 3422,
      "##を": 3423,
      "##憶": 3424,
      "##後": 3425,
      "##部": 3426,
      "##編": 3427,
      "##浦": 3428,
      "##ム": 3429,
      "##佰": 3430,
      "##법": 3431,
      "##화": 3432,
      "##』": 3433,
      "##ỗ": 3434,
      "##唸": 3435,
      "##っ": 3436,
      "##它": 3437,
      "##械": 3438,
      "##̶": 3439,
      "##ọ": 3440,
      "##流": 3441,
      "##輿": 3442,
      "##担": 3443,
      "##ʌ": 3444,
      "##目": 3445,
      "##ḍ": 3446,
      "##入": 3447,
      "##国": 3448,
      "##及": 3449,
      "##び": 3450,
      "##難": 3451,
      "##認": 3452,
      "##‹": 3453,
      "##エ": 3454,
      "##ラ": 3455,
      "##ズ": 3456,
      "##던": 3457,
      "##话": 3458,
      "##卡": 3459,
      "##는": 3460,
      "##虎": 3461,
      "##": 3462,
      "##學": 3463,
      "##抵": 3464,
      "##於": 3465,
      "##孟": 3466,
      "##妖": 3467,
      "##誕": 3468,
      "##ၛ": 3469,
      "##პ": 3470,
      "##ი": 3471,
      "##ҡ": 3472,
      "##作": 3473,
      "##♪": 3474,
      "##想": 3475,
      "##找": 3476,
      "##囲": 3477,
      "##東": 3478,
      "##千": 3479,
      "##̃": 3480,
      "##̐": 3481,
      "##ᕙ": 3482,
      "##ᑯ": 3483,
      "##ธ": 3484,
      "##ͳ": 3485,
      "##޺": 3486,
      "##咬": 3487,
      "##紧": 3488,
      "##牙": 3489,
      "##ल": 3490,
      "##レ": 3491,
      "##サ": 3492,
      "##∇": 3493,
      "##義": 3494,
      "##忻": 3495,
      "##ề": 3496,
      "##ҵ": 3497,
      "##江": 3498,
      "##ỏ": 3499,
      "##蔚": 3500,
      "##ᓕ": 3501,
      "##ᕝ": 3502,
      "##ᕕ": 3503,
      "##星": 3504,
      "##只": 3505,
      "##ẳ": 3506,
      "##უ": 3507,
      "##󻯣": 3508,
      "##良": 3509,
      "##呼": 3510,
      "##ヤ": 3511,
      "##고": 3512,
      "##月": 3513,
      "##": 3514,
      "##": 3515,
      "##醍": 3516,
      "##醐": 3517,
      "##賢": 3518,
      "##況": 3519,
      "##册": 3520,
      "##标": 3521,
      "##": 3522,
      "##お": 3523,
      "##香": 3524,
      "##あ": 3525,
      "##ừ": 3526,
      "##─": 3527,
      "##ử": 3528,
      "##⁾": 3529,
      "##가": 3530,
      "##素": 3531,
      "##贞": 3532,
      "##ŀ": 3533,
      "##♫": 3534,
      "##几": 3535,
      "##გ": 3536,
      "##島": 3537,
      "##市": 3538,
      "##ⴐ": 3539,
      "##较": 3540,
      "##嘛": 3541,
      "##丸": 3542,
      "##列": 3543,
      "##車": 3544,
      "##物": 3545,
      "##ｓ": 3546,
      "##溜": 3547,
      "##ả": 3548,
      "##柳": 3549,
      "##書": 3550,
      "##飼": 3551,
      "##跋": 3552,
      "##扈": 3553,
      "##习": 3554,
      "##№": 3555,
      "##降": 3556,
      "##注": 3557,
      "##计": 3558,
      "##装": 3559,
      "##修": 3560,
      "##○": 3561,
      "##重": 3562,
      "##博": 3563,
      "##娱": 3564,
      "##乐": 3565,
      "##在": 3566,
      "##上": 3567,
      "##日": 3568,
      "##语": 3569,
      "##志": 3570,
      "##雄": 3571,
      "##ồ": 3572,
      "##๑": 3573,
      "##": 3574,
      "##份": 3575,
      "##๊": 3576,
      "##ӡ": 3577,
      "##ˢ": 3578,
      "##安": 3579,
      "##餅": 3580,
      "##庄": 3581,
      "##ך": 3582,
      "##ễ": 3583,
      "##区": 3584,
      "##˚": 3585,
      "##თ": 3586,
      "##ấ": 3587,
      "##ụ": 3588,
      "##鄉": 3589,
      "##参": 3590,
      "##ᐸ": 3591,
      "##ے": 3592,
      "##当": 3593,
      "##ば": 3594,
      "##駄": 3595,
      "##通": 3596,
      "##": 3597,
      "##口": 3598,
      "##包": 3599,
      "##邮": 3600,
      "##": 3601,
      "##ף": 3602,
      "##ც": 3603,
      "##ვ": 3604,
      "##引": 3605,
      "##立": 3606,
      "##ウ": 3607,
      "##業": 3608,
      "##歌": 3609,
      "##計": 3610,
      "##覇": 3611,
      "##ċ": 3612,
      "##換": 3613,
      "##下": 3614,
      "##可": 3615,
      "##证": 3616,
      "##条": 3617,
      "##款": 3618,
      "##ṃ": 3619,
      "##̥": 3620,
      "##告": 3621,
      "##编": 3622,
      "##煮": 3623,
      "##诘": 3624,
      "##肃": 3625,
      "##俊": 3626,
      "##˝": 3627,
      "##卓": 3628,
      "##钧": 3629,
      "##着": 3630,
      "##˜": 3631,
      "##生": 3632,
      "##无": 3633,
      "##実": 3634,
      "##ḥ": 3635,
      "##熨": 3636,
      "##斗": 3637,
      "##纸": 3638,
      "##陶": 3639,
      "##板": 3640,
      "##ớ": 3641,
      "##魂": 3642,
      "##笑": 3643,
      "##浄": 3644,
      "##չ": 3645,
      "##ʾ": 3646,
      "##个": 3647,
      "##ắ": 3648,
      "##ᑐ": 3649,
      "##别": 3650,
      "##总": 3651,
      "##览": 3652,
      "##∼": 3653,
      "##間": 3654,
      "##ژ": 3655,
      "##≥": 3656,
      "##ờ": 3657,
      "##✿": 3658,
      "##ח": 3659,
      "##五": 3660,
      "##壹": 3661,
      "##竹": 3662,
      "##ህ": 3663,
      "##ұ": 3664,
      "##ग": 3665,
      "##थ": 3666,
      "##": 3667,
      "##ぽ": 3668,
      "##ɾ": 3669,
      "##敏": 3670,
      "##损": 3671,
      "##ๆ": 3672,
      "##工": 3673,
      "##厂": 3674,
      "##製": 3675,
      "##洲": 3676,
      "##ҙ": 3677,
      "##ो": 3678,
      "##手": 3679,
      "##​": 3680,
      "##習": 3681,
      "##語": 3682,
      "##是": 3683,
      "##我": 3684,
      "##这": 3685,
      "##次": 3686,
      "##捷": 3687,
      "##克": 3688,
      "##庸": 3689,
      "##戸": 3690,
      "##）": 3691,
      "##业": 3692,
      "##ገ": 3693,
      "##ስ": 3694,
      "##ት": 3695,
      "##↔": 3696,
      "##来": 3697,
      "##∀": 3698,
      "##ữ": 3699,
      "##岡": 3700,
      "##ַ": 3701,
      "##ֲ": 3702,
      "##終": 3703,
      "##茶": 3704,
      "##೯": 3705,
      "##೦": 3706,
      "##ʡ": 3707,
      "##ナ": 3708,
      "##ղ": 3709,
      "##բ": 3710,
      "##角": 3711,
      "##余": 3712,
      "##晏": 3713,
      "##黄": 3714,
      "##德": 3715,
      "##隆": 3716,
      "##마": 3717,
      "##ǘ": 3718,
      "##園": 3719,
      "##": 3720,
      "##ȇ": 3721,
      "##辑": 3722,
      "##►": 3723,
      "##﻿": 3724,
      "##☼": 3725,
      "##井": 3726,
      "##幹": 3727,
      "##線": 3728,
      "##ҫ": 3729,
      "##縄": 3730,
      "##県": 3731,
      "##際": 3732,
      "##共": 3733,
      "##蔓": 3734,
      "##莹": 3735,
      "##原": 3736,
      "##约": 3737,
      "##现": 3738,
      "##风": 3739,
      "##格": 3740,
      "##丨": 3741,
      "##ᓗ": 3742,
      "##恢": 3743,
      "##復": 3744,
      "##泽": 3745,
      "##东": 3746,
      "##相": 3747,
      "##客": 3748,
      "##葉": 3749,
      "##ケ": 3750,
      "##モ": 3751,
      "##握": 3752,
      "##言": 3753,
      "##欢": 3754,
      "##艳": 3755,
      "##舞": 3756,
      "##系": 3757,
      "##郎": 3758,
      "##満": 3759,
      "##開": 3760,
      "##摇": 3761,
      "##尾": 3762,
      "##ฟ": 3763,
      "##ぎ": 3764,
      "##比": 3765,
      "##】": 3766,
      "##⁄": 3767,
      "##ẻ": 3768,
      "##搗": 3769,
      "##負": 3770,
      "##ʢ": 3771,
      "##賃": 3772,
      "##貸": 3773,
      "##パ": 3774,
      "##든": 3775,
      "##ᴹ": 3776,
      "##ᴰ": 3777,
      "##ȩ": 3778,
      "##駅": 3779,
      "##だ": 3780,
      "##思": 3781,
      "##娜": 3782,
      "##谷": 3783,
      "##焼": 3784,
      "##。": 3785,
      "##←": 3786,
      "##پ": 3787,
      "##叫": 3788,
      "##戴": 3789,
      "##": 3790,
      "##ᒋ": 3791,
      "##港": 3792,
      "##与": 3793,
      "##互": 3794,
      "##执": 3795,
      "##仲": 3796,
      "##裁": 3797,
      "##决": 3798,
      "##制": 3799,
      "##度": 3800,
      "##发": 3801,
      "##展": 3802,
      "##ὺ": 3803,
      "##ܵ": 3804,
      "##ȷ": 3805,
      "##面": 3806,
      "##所": 3807,
      "##白": 3808,
      "##バ": 3809,
      "##花": 3810,
      "##飾": 3811,
      "##翁": 3812,
      "##金": 3813,
      "##珠": 3814,
      "##ᑲ": 3815,
      "##哈": 3816,
      "##止": 3817,
      "##春": 3818,
      "##泥": 3819,
      "##士": 3820,
      "##シ": 3821,
      "##雑": 3822,
      "##여": 3823,
      "##宜": 3824,
      "##六": 3825,
      "##四": 3826,
      "##त": 3827,
      "##ी": 3828,
      "##제": 3829,
      "##ἰ": 3830,
      "##達": 3831,
      "##०": 3832,
      "##४": 3833,
      "##鍵": 3834,
      "##字": 3835,
      "##グ": 3836,
      "##﷓": 3837,
      "##必": 3838,
      "##治": 3839,
      "##力": 3840,
      "##推": 3841,
      "##荐": 3842,
      "##¾": 3843,
      "##損": 3844,
      "##南": 3845,
      "##袍": 3846,
      "##ല": 3847,
      "##യ": 3848,
      "##ാ": 3849,
      "##ള": 3850,
      "##ം": 3851,
      "##伸": 3852,
      "##広": 3853,
      "##百": 3854,
      "##零": 3855,
      "##ᖢ": 3856,
      "##ᑉ": 3857,
      "##赛": 3858,
      "##ṣ": 3859,
      "##ṇ": 3860,
      "##庫": 3861,
      "##落": 3862,
      "##水": 3863,
      "##池": 3864,
      "##񣬰": 3865,
      "##음": 3866,
      "##을": 3867,
      "##ỉ": 3868,
      "##财": 3869,
      "##经": 3870,
      "##律": 3871,
      "##论": 3872,
      "##坛": 3873,
      "##许": 3874,
      "##ಶ": 3875,
      "##್": 3876,
      "##ವ": 3877,
      "##ರ": 3878,
      "##ಯ": 3879,
      "##ಾ": 3880,
      "##得": 3881,
      "##，": 3882,
      "##泉": 3883,
      "##ĵ": 3884,
      "##": 3885,
      "##由": 3886,
      "##呂": 3887,
      "##片": 3888,
      "##ै": 3889,
      "##ٷ": 3890,
      "##申": 3891,
      "##ƽ": 3892,
      "##̨": 3893,
      "##若": 3894,
      "##ტ": 3895,
      "##사": 3896,
      "##리": 3897,
      "##祖": 3898,
      "##ೈ": 3899,
      "##科": 3900,
      "##技": 3901,
      "##琮": 3902,
      "##": 3903,
      "##向": 3904,
      "##群": 3905,
      "##स": 3906,
      "##क": 3907,
      "##ृ": 3908,
      "##ֿ": 3909,
      "##׬": 3910,
      "##队": 3911,
      "##": 3912,
      "##實": 3913,
      "##힌": 3914,
      "##다": 3915,
      "##『": 3916,
      "##߷": 3917,
      "##噌": 3918,
      "##ʃ": 3919,
      "##˽": 3920,
      "##선": 3921,
      "##宁": 3922,
      "##勢": 3923,
      "##荣": 3924,
      "##ａ": 3925,
      "##ｐ": 3926,
      "##ｎ": 3927,
      "##≈": 3928,
      "##": 3929,
      "##位": 3930,
      "##置": 3931,
      "##优": 3932,
      "##薩": 3933,
      "##棋": 3934,
      "##ḷ": 3935,
      "##ᖑ": 3936,
      "##ں": 3937,
      "##ɷ": 3938,
      "##簡": 3939,
      "##単": 3940,
      "##変": 3941,
      "##服": 3942,
      "##務": 3943,
      "##ฝ": 3944,
      "##寿": 3945,
      "##ổ": 3946,
      "##揃": 3947,
      "##қ": 3948,
      "##円": 3949,
      "##よ": 3950,
      "##そ": 3951,
      "##値": 3952,
      "##段": 3953,
      "##ተ": 3954,
      "##ቀ": 3955,
      "##የ": 3956,
      "##ረ": 3957,
      "##ው": 3958,
      "##畿": 3959,
      "##尊": 3960,
      "##氏": 3961,
      "##衫": 3962,
      "##蒋": 3963,
      "##∑": 3964,
      "##む": 3965,
      "##み": 3966,
      "##颖": 3967,
      "##性": 3968,
      "##爱": 3969,
      "##߻": 3970,
      "##経": 3971,
      "##ٔ": 3972,
      "##지": 3973,
      "##ノ": 3974,
      "##屑": 3975,
      "##ユ": 3976,
      "##ピ": 3977,
      "##임": 3978,
      "##朱": 3979,
      "##献": 3980,
      "##‬": 3981,
      "##߹": 3982,
      "##嬉": 3983,
      "##": 3984,
      "##‏": 3985,
      "##信": 3986,
      "##佑": 3987,
      "##支": 3988,
      "##": 3989,
      "##ᖓ": 3990,
      "##": 3991,
      "##ペ": 3992,
      "##へ": 3993,
      "##举": 3994,
      "##牌": 3995,
      "##权": 3996,
      "##光": 3997,
      "##ክ": 3998,
      "##ቶ": 3999,
      "##በ": 4000,
      "##ር": 4001,
      "##媛": 4002,
      "##援": 4003,
      "##交": 4004,
      "##キ": 4005,
      "##ダ": 4006,
      "##ฏ": 4007,
      "##程": 4008,
      "##采": 4009,
      "##购": 4010,
      "##际": 4011,
      "##莽": 4012,
      "##师": 4013,
      "##种": 4014,
      "##鸣": 4015,
      "##享": 4016,
      "##旅": 4017,
      "##遊": 4018,
      "##照": 4019,
      "##佳": 4020,
      "##ɨ": 4021,
      "##ẹ": 4022,
      "##‭": 4023,
      "##紀": 4024,
      "##⋅": 4025,
      "##洋": 4026,
      "##": 4027,
      "##ủ": 4028,
      "##倍": 4029,
      "##↑": 4030,
      "##室": 4031,
      "##◄": 4032,
      "##配": 4033,
      "##ŝ": 4034,
      "##伝": 4035,
      "##ュ": 4036,
      "##津": 4037,
      "##니": 4038,
      "##鲁": 4039,
      "##齐": 4040,
      "##号": 4041,
      "##近": 4042,
      "##改": 4043,
      "##平": 4044,
      "##七": 4045,
      "##第": 4046,
      "##书": 4047,
      "##坑": 4048,
      "##儒": 4049,
      "##५": 4050,
      "##寸": 4051,
      "##步": 4052,
      "##ʰ": 4053,
      "##﹏": 4054,
      "##ͷ": 4055,
      "##ｰ": 4056,
      "##滩": 4057,
      "##峪": 4058,
      "##ざ": 4059,
      "##橋": 4060,
      "##浜": 4061,
      "##忙": 4062,
      "##⊕": 4063,
      "##ぶ": 4064,
      "##ɚ": 4065,
      "##련": 4066,
      "##ԁ": 4067,
      "##フ": 4068,
      "##ァ": 4069,
      "##村": 4070,
      "##麻": 4071,
      "##为": 4072,
      "##视": 4073,
      "##问": 4074,
      "##」": 4075,
      "##敷": 4076,
      "##提": 4077,
      "##埵": 4078,
      "##⣬": 4079,
      "##۵": 4080,
      "##込": 4081,
      "##析": 4082,
      "##": 4083,
      "##伊": 4084,
      "##稲": 4085,
      "##ǐ": 4086,
      "##ⁿ": 4087,
      "##೭": 4088,
      "##೫": 4089,
      "##׼": 4090,
      "##ʱ": 4091,
      "##결": 4092,
      "##책": 4093,
      "##臂": 4094,
      "##挡": 4095,
      "##ﬄ": 4096,
      "##甜": 4097,
      "##೪": 4098,
      "##枚": 4099,
      "##锚": 4100,
      "##屋": 4101,
      "##門": 4102,
      "##乏": 4103,
      "##术": 4104,
      "##息": 4105,
      "##梨": 4106,
      "##კ": 4107,
      "##ɗ": 4108,
      "##起": 4109,
      "##ȏ": 4110,
      "##就": 4111,
      "##操": 4112,
      "##۱": 4113,
      "##": 4114,
      "##렉": 4115,
      "##상": 4116,
      "##드": 4117,
      "##르": 4118,
      "##ự": 4119,
      "##雲": 4120,
      "##玲": 4121,
      "##屈": 4122,
      "##灣": 4123,
      "##蔵": 4124,
      "##∅": 4125,
      "##ỷ": 4126,
      "##ҽ": 4127,
      "##圆": 4128,
      "##防": 4129,
      "##园": 4130,
      "##׵": 4131,
      "##淹": 4132,
      "##过": 4133,
      "##辞": 4134,
      "##波": 4135,
      "##丽": 4136,
      "##痛": 4137,
      "##√": 4138,
      "##져": 4139,
      "##﴿": 4140,
      "##镜": 4141,
      "##親": 4142,
      "##阅": 4143,
      "##父": 4144,
      "##학": 4145,
      "##교": 4146,
      "##舫": 4147,
      "##京": 4148,
      "##令": 4149,
      "##九": 4150,
      "##屄": 4151,
      "##შ": 4152,
      "##授": 4153,
      "##永": 4154,
      "##遠": 4155,
      "##姫": 4156,
      "##이": 4157,
      "##費": 4158,
      "##者": 4159,
      "##価": 4160,
      "##尔": 4161,
      "##黛": 4162,
      "##ȹ": 4163,
      "##ጨ": 4164,
      "##ሻ": 4165,
      "##ɐ": 4166,
      "##𐍃": 4167,
      "##𐌰": 4168,
      "##𐌽": 4169,
      "##𐌼": 4170,
      "##𐌴": 4171,
      "##𐍉": 4172,
      "##𐌸": 4173,
      "##脱": 4174,
      "##罪": 4175,
      "##阜": 4176,
      "##񼰺": 4177,
      "##짜": 4178,
      "##⅝": 4179,
      "##坐": 4180,
      "##抜": 4181,
      "##・": 4182,
      "##货": 4183,
      "##ѯ": 4184,
      "##": 4185,
      "##瞎": 4186,
      "##搞": 4187,
      "##ặ": 4188,
      "##ᖁ": 4189,
      "##里": 4190,
      "##迅": 4191,
      "##雷": 4192,
      "##载": 4193,
      "##势": 4194,
      "##ᵐ": 4195,
      "##龙": 4196,
      "##头": 4197,
      "##য": 4198,
      "##ু": 4199,
      "##ম": 4200,
      "##⡣": 4201,
      "##": 4202,
      "##׀": 4203,
      "##ỡ": 4204,
      "##୫": 4205,
      "##한": 4206,
      "##ფ": 4207,
      "##们": 4208,
      "##级": 4209,
      "##酒": 4210,
      "##＊": 4211,
      "##桥": 4212,
      "##涌": 4213,
      "##ず": 4214,
      "##콨": 4215,
      "##率": 4216,
      "##۶": 4217,
      "##漢": 4218,
      "##儀": 4219,
      "##쁜": 4220,
      "##付": 4221,
      "##赶": 4222,
      "##徳": 4223,
      "##対": 4224,
      "##象": 4225,
      "##ォ": 4226,
      "##ǰ": 4227,
      "##": 4228,
      "##ฉ": 4229,
      "##랍": 4230,
      "##形": 4231,
      "##土": 4232,
      "##打": 4233,
      "##吹": 4234,
      "##ャ": 4235,
      "##공": 4236,
      "##합": 4237,
      "##閥": 4238,
      "##庁": 4239,
      "##题": 4240,
      "##痴": 4241,
      "##态": 4242,
      "##呆": 4243,
      "##陈": 4244,
      "##铭": 4245,
      "##ご": 4246,
      "##や": 4247,
      "##遣": 4248,
      "##投": 4249,
      "##票": 4250,
      "##数": 4251,
      "##选": 4252,
      "##例": 4253,
      "##es": 4254,
      "##on": 4255,
      "##nt": 4256,
      "##ti": 4257,
      "de": 4258,
      "##er": 4259,
      "##ur": 4260,
      "##ent": 4261,
      "##tion": 4262,
      "##is": 4263,
      "##re": 4264,
      "la": 4265,
      "##it": 4266,
      "##an": 4267,
      "et": 4268,
      "##ation": 4269,
      "##le": 4270,
      "des": 4271,
      "##ar": 4272,
      "le": 4273,
      "##ue": 4274,
      "les": 4275,
      "##or": 4276,
      "##ment": 4277,
      "##ou": 4278,
      "pr": 4279,
      "##in": 4280,
      "##om": 4281,
      "##en": 4282,
      "en": 4283,
      "un": 4284,
      "au": 4285,
      "con": 4286,
      "##ra": 4287,
      "##ant": 4288,
      "##te": 4289,
      "##our": 4290,
      "##és": 4291,
      "##al": 4292,
      "du": 4293,
      "##ai": 4294,
      "par": 4295,
      "##si": 4296,
      "##ce": 4297,
      "##li": 4298,
      "##me": 4299,
      "qu": 4300,
      "##el": 4301,
      "com": 4302,
      "dé": 4303,
      "##ec": 4304,
      "##ans": 4305,
      "##ri": 4306,
      "##ci": 4307,
      "pro": 4308,
      "##st": 4309,
      "##res": 4310,
      "pour": 4311,
      "##que": 4312,
      "##ta": 4313,
      "##pp": 4314,
      "in": 4315,
      "que": 4316,
      "##au": 4317,
      "##ement": 4318,
      "##qu": 4319,
      "dans": 4320,
      "##il": 4321,
      "##té": 4322,
      "##ité": 4323,
      "##oi": 4324,
      "ré": 4325,
      "##se": 4326,
      "##tre": 4327,
      "##us": 4328,
      "sur": 4329,
      "une": 4330,
      "##et": 4331,
      "##ations": 4332,
      "pa": 4333,
      "##di": 4334,
      "##ro": 4335,
      "##ion": 4336,
      "ex": 4337,
      "ac": 4338,
      "##ous": 4339,
      "##les": 4340,
      "est": 4341,
      "int": 4342,
      "av": 4343,
      "il": 4344,
      "##ol": 4345,
      "##ff": 4346,
      "##ern": 4347,
      "qui": 4348,
      "##00": 4349,
      "##ée": 4350,
      "##ont": 4351,
      "##ts": 4352,
      "pl": 4353,
      "##eu": 4354,
      "##ces": 4355,
      "##sion": 4356,
      "##ale": 4357,
      "##ch": 4358,
      "##ouv": 4359,
      "##em": 4360,
      "##aire": 4361,
      "##ag": 4362,
      "##de": 4363,
      "##pé": 4364,
      "##mes": 4365,
      "##onn": 4366,
      "aux": 4367,
      "##cu": 4368,
      "##ati": 4369,
      "éta": 4370,
      "ch": 4371,
      "##ers": 4372,
      "##ort": 4373,
      "ou": 4374,
      "comm": 4375,
      "200": 4376,
      "##ées": 4377,
      "##iv": 4378,
      "##ab": 4379,
      "app": 4380,
      "##urs": 4381,
      "##os": 4382,
      "##ie": 4383,
      "su": 4384,
      "##ait": 4385,
      "##ir": 4386,
      "##tions": 4387,
      "##ais": 4388,
      "re": 4389,
      "##ques": 4390,
      "##am": 4391,
      "##én": 4392,
      "ce": 4393,
      "##ul": 4394,
      "or": 4395,
      "##at": 4396,
      "##ré": 4397,
      "parti": 4398,
      "##ne": 4399,
      "tra": 4400,
      "##ss": 4401,
      "##ère": 4402,
      "##ure": 4403,
      "##aux": 4404,
      "##pr": 4405,
      "ra": 4406,
      "##for": 4407,
      "##un": 4408,
      "an": 4409,
      "##ance": 4410,
      "se": 4411,
      "##ons": 4412,
      "##mp": 4413,
      "di": 4414,
      "##ist": 4415,
      "##du": 4416,
      "ad": 4417,
      "##fi": 4418,
      "mo": 4419,
      "##aires": 4420,
      "##ig": 4421,
      "aut": 4422,
      "ar": 4423,
      "##tu": 4424,
      "##ction": 4425,
      "##roit": 4426,
      "ent": 4427,
      "pas": 4428,
      "tou": 4429,
      "##and": 4430,
      "##dre": 4431,
      "po": 4432,
      "prés": 4433,
      "##vent": 4434,
      "##lle": 4435,
      "ca": 4436,
      "##id": 4437,
      "droit": 4438,
      "no": 4439,
      "org": 4440,
      "sont": 4441,
      "plus": 4442,
      "ser": 4443,
      "##éra": 4444,
      "ont": 4445,
      "##ités": 4446,
      "##ès": 4447,
      "##ren": 4448,
      "pré": 4449,
      "##ien": 4450,
      "##ants": 4451,
      "tr": 4452,
      "##ve": 4453,
      "cons": 4454,
      "##bre": 4455,
      "##bli": 4456,
      "avec": 4457,
      "organ": 4458,
      "rés": 4459,
      "intern": 4460,
      "res": 4461,
      "gr": 4462,
      "nous": 4463,
      "comp": 4464,
      "##ales": 4465,
      "##ème": 4466,
      "##ac": 4467,
      "so": 4468,
      "##ain": 4469,
      "rapp": 4470,
      "ne": 4471,
      "été": 4472,
      "##ies": 4473,
      "##ys": 4474,
      "##ég": 4475,
      "##tes": 4476,
      "cet": 4477,
      "##ér": 4478,
      "co": 4479,
      "##min": 4480,
      "sé": 4481,
      "##ique": 4482,
      "dis": 4483,
      "pays": 4484,
      "acc": 4485,
      "##oir": 4486,
      "##ission": 4487,
      "ses": 4488,
      "##pe": 4489,
      "rec": 4490,
      "##cation": 4491,
      "##isation": 4492,
      "internation": 4493,
      "conc": 4494,
      "##lement": 4495,
      "gén": 4496,
      "être": 4497,
      "li": 4498,
      "déc": 4499,
      "for": 4500,
      "##iss": 4501,
      "##mé": 4502,
      "##bl": 4503,
      "sec": 4504,
      "sa": 4505,
      "##vi": 4506,
      "prog": 4507,
      "##ite": 4508,
      "##vel": 4509,
      "##ures": 4510,
      "généra": 4511,
      "##velo": 4512,
      "ég": 4513,
      "trav": 4514,
      "##velopp": 4515,
      "eff": 4516,
      "##ins": 4517,
      "fon": 4518,
      "développ": 4519,
      "si": 4520,
      "mon": 4521,
      "##ux": 4522,
      "##tiv": 4523,
      "##ise": 4524,
      "ces": 4525,
      "entre": 4526,
      "##oc": 4527,
      "##jet": 4528,
      "ob": 4529,
      "imp": 4530,
      "##ord": 4531,
      "##end": 4532,
      "##tif": 4533,
      "##ens": 4534,
      "peu": 4535,
      "rég": 4536,
      "sou": 4537,
      "cont": 4538,
      "per": 4539,
      "19": 4540,
      "cette": 4541,
      "##ge": 4542,
      "##seil": 4543,
      "pers": 4544,
      "conseil": 4545,
      "développement": 4546,
      "éc": 4547,
      "##ter": 4548,
      "##ru": 4549,
      "##olu": 4550,
      "do": 4551,
      "##po": 4552,
      "##ram": 4553,
      "##elle": 4554,
      "pu": 4555,
      "droits": 4556,
      "fin": 4557,
      "##opé": 4558,
      "états": 4559,
      "program": 4560,
      "##ail": 4561,
      "##og": 4562,
      "##lé": 4563,
      "ass": 4564,
      "##age": 4565,
      "##tin": 4566,
      "ren": 4567,
      "nations": 4568,
      "fa": 4569,
      "##teur": 4570,
      "on": 4571,
      "##ements": 4572,
      "mes": 4573,
      "exp": 4574,
      "##cip": 4575,
      "son": 4576,
      "##ui": 4577,
      "##man": 4578,
      "autres": 4579,
      "leur": 4580,
      "vi": 4581,
      "unies": 4582,
      "personn": 4583,
      "fait": 4584,
      "dev": 4585,
      "##ble": 4586,
      "ter": 4587,
      "##ct": 4588,
      "rapport": 4589,
      "commission": 4590,
      "ques": 4591,
      "##éri": 4592,
      "poli": 4593,
      "at": 4594,
      "##vention": 4595,
      "##ph": 4596,
      "comité": 4597,
      "##ration": 4598,
      "##titu": 4599,
      "##able": 4600,
      "nom": 4601,
      "conf": 4602,
      "mar": 4603,
      "enf": 4604,
      "##ence": 4605,
      "##form": 4606,
      "eur": 4607,
      "soci": 4608,
      "##ours": 4609,
      "##lar": 4610,
      "vous": 4611,
      "##ouvern": 4612,
      "ins": 4613,
      "##ille": 4614,
      "##alement": 4615,
      "rép": 4616,
      "af": 4617,
      "présent": 4618,
      "##éd": 4619,
      "##as": 4620,
      "commun": 4621,
      "##teurs": 4622,
      "grou": 4623,
      "comme": 4624,
      "##mi": 4625,
      "##ign": 4626,
      "dép": 4627,
      "rel": 4628,
      "al": 4629,
      "concern": 4630,
      "##til": 4631,
      "##ten": 4632,
      "##cur": 4633,
      "##bres": 4634,
      "##elles": 4635,
      "##cess": 4636,
      "gouvern": 4637,
      "##eau": 4638,
      "je": 4639,
      "##ves": 4640,
      "nation": 4641,
      "mem": 4642,
      "##ut": 4643,
      "min": 4644,
      "appli": 4645,
      "travail": 4646,
      "##tique": 4647,
      "##ois": 4648,
      "hom": 4649,
      "##op": 4650,
      "##aient": 4651,
      "##onom": 4652,
      "trans": 4653,
      "sy": 4654,
      "##olution": 4655,
      "servi": 4656,
      "##rib": 4657,
      "ag": 4658,
      "organis": 4659,
      "##sem": 4660,
      "projet": 4661,
      "##ision": 4662,
      "##rét": 4663,
      "nouv": 4664,
      "inform": 4665,
      "as": 4666,
      "##posi": 4667,
      "##oint": 4668,
      "sécur": 4669,
      "donn": 4670,
      "ét": 4671,
      "tous": 4672,
      "inter": 4673,
      "##péci": 4674,
      "##che": 4675,
      "##emp": 4676,
      "es": 4677,
      "st": 4678,
      "##ang": 4679,
      "présid": 4680,
      "##mand": 4681,
      "sécurité": 4682,
      "fond": 4683,
      "##lo": 4684,
      "##ères": 4685,
      "##éren": 4686,
      "##ace": 4687,
      "ain": 4688,
      "spéci": 4689,
      "##ic": 4690,
      "ainsi": 4691,
      "##ine": 4692,
      "elle": 4693,
      "secrét": 4694,
      "##ors": 4695,
      "##met": 4696,
      "arti": 4697,
      "##ents": 4698,
      "resp": 4699,
      "région": 4700,
      "également": 4701,
      "mé": 4702,
      "##ments": 4703,
      "activ": 4704,
      "ma": 4705,
      "ju": 4706,
      "repr": 4707,
      "deux": 4708,
      "##ari": 4709,
      "##eux": 4710,
      "membres": 4711,
      "),": 4712,
      "état": 4713,
      "dire": 4714,
      "exam": 4715,
      "économ": 4716,
      "év": 4717,
      ").": 4718,
      "vo": 4719,
      "non": 4720,
      "mais": 4721,
      "##cle": 4722,
      "fem": 4723,
      "publi": 4724,
      "contre": 4725,
      "##eur": 4726,
      "bien": 4727,
      "##tiques": 4728,
      "##iques": 4729,
      "env": 4730,
      "##alité": 4731,
      "programme": 4732,
      "ann": 4733,
      "##ième": 4734,
      "##tent": 4735,
      "cer": 4736,
      "##orts": 4737,
      "faire": 4738,
      "##ême": 4739,
      "199": 4740,
      "convention": 4741,
      "##ard": 4742,
      "##ante": 4743,
      "groupe": 4744,
      "util": 4745,
      "##ourn": 4746,
      "né": 4747,
      "leurs": 4748,
      "session": 4749,
      "représ": 4750,
      "aff": 4751,
      "résolution": 4752,
      "adop": 4753,
      "représent": 4754,
      "cré": 4755,
      "président": 4756,
      "syst": 4757,
      "##um": 4758,
      "diff": 4759,
      "##rait": 4760,
      "pre": 4761,
      "##bil": 4762,
      "général": 4763,
      "sit": 4764,
      "##ises": 4765,
      "homme": 4766,
      "nombre": 4767,
      "gouvernement": 4768,
      "##aine": 4769,
      "tout": 4770,
      "##vre": 4771,
      "pos": 4772,
      "mesures": 4773,
      "##els": 4774,
      "prop": 4775,
      "point": 4776,
      "particu": 4777,
      "import": 4778,
      "organisation": 4779,
      "##uation": 4780,
      "relati": 4781,
      "inst": 4782,
      "##hn": 4783,
      "##aut": 4784,
      "##lles": 4785,
      "off": 4786,
      "##rit": 4787,
      "particuli": 4788,
      "prin": 4789,
      "europé": 4790,
      "ab": 4791,
      "##raph": 4792,
      "enfants": 4793,
      "##près": 4794,
      "enc": 4795,
      "ai": 4796,
      "##ven": 4797,
      "##enne": 4798,
      "##èg": 4799,
      "article": 4800,
      "femmes": 4801,
      "vis": 4802,
      "produ": 4803,
      "##érence": 4804,
      "##tég": 4805,
      "car": 4806,
      "même": 4807,
      "##ole": 4808,
      "dom": 4809,
      "proc": 4810,
      "sous": 4811,
      "activités": 4812,
      "certa": 4813,
      "man": 4814,
      "##mment": 4815,
      "peut": 4816,
      "indi": 4817,
      "##ap": 4818,
      "##oire": 4819,
      "suiv": 4820,
      "ils": 4821,
      "##lu": 4822,
      "déf": 4823,
      "ten": 4824,
      "col": 4825,
      "aus": 4826,
      "##sembl": 4827,
      "##ribu": 4828,
      "form": 4829,
      "##its": 4830,
      "##ad": 4831,
      "services": 4832,
      "aussi": 4833,
      "##tement": 4834,
      "##rai": 4835,
      "mil": 4836,
      "internationale": 4837,
      "nécess": 4838,
      "pri": 4839,
      "cent": 4840,
      "##tifs": 4841,
      "th": 4842,
      "générale": 4843,
      "amé": 4844,
      "pren": 4845,
      "assembl": 4846,
      "jus": 4847,
      "tec": 4848,
      "dont": 4849,
      "lors": 4850,
      "premi": 4851,
      "##ud": 4852,
      "techn": 4853,
      "accord": 4854,
      "docu": 4855,
      "##ues": 4856,
      "assemblée": 4857,
      "##erv": 4858,
      "cas": 4859,
      "mati": 4860,
      "réun": 4861,
      "##cer": 4862,
      "partie": 4863,
      "##dé": 4864,
      "international": 4865,
      "mai": 4866,
      "question": 4867,
      "##alis": 4868,
      "##erci": 4869,
      "emp": 4870,
      "pai": 4871,
      "cadre": 4872,
      "##jec": 4873,
      "nota": 4874,
      "##nes": 4875,
      "##enti": 4876,
      "##ult": 4877,
      "##bles": 4878,
      "char": 4879,
      "déclar": 4880,
      "toute": 4881,
      "questions": 4882,
      "sta": 4883,
      "parties": 4884,
      "recom": 4885,
      "mise": 4886,
      "personnes": 4887,
      "ress": 4888,
      "toutes": 4889,
      "permet": 4890,
      "mondi": 4891,
      "##olog": 4892,
      "coopé": 4893,
      "##par": 4894,
      "disposi": 4895,
      "ci": 4896,
      "notamment": 4897,
      "##ôle": 4898,
      "niv": 4899,
      "##iter": 4900,
      "##ière": 4901,
      "règ": 4902,
      "##ables": 4903,
      "plan": 4904,
      "concernant": 4905,
      "##ources": 4906,
      "renfor": 4907,
      "10": 4908,
      "secrétaire": 4909,
      "décision": 4910,
      "compte": 4911,
      "particip": 4912,
      "##cri": 4913,
      "##sie": 4914,
      "##ler": 4915,
      "am": 4916,
      "doit": 4917,
      "##oy": 4918,
      "sans": 4919,
      "finan": 4920,
      "parag": 4921,
      "objec": 4922,
      "princip": 4923,
      "##ande": 4924,
      "fourn": 4925,
      "tro": 4926,
      "##ert": 4927,
      "jour": 4928,
      "afin": 4929,
      "##uelle": 4930,
      "système": 4931,
      "##mande": 4932,
      "##cep": 4933,
      "paragraph": 4934,
      "cel": 4935,
      "après": 4936,
      "##lab": 4937,
      "met": 4938,
      "équ": 4939,
      "institu": 4940,
      "application": 4941,
      "##ner": 4942,
      "moy": 4943,
      "##iti": 4944,
      "pouv": 4945,
      "##endant": 4946,
      "cor": 4947,
      "##cul": 4948,
      "réunion": 4949,
      "admin": 4950,
      "conférence": 4951,
      "cl": 4952,
      "éle": 4953,
      "administ": 4954,
      "##ivers": 4955,
      "##oci": 4956,
      "##labor": 4957,
      "oc": 4958,
      "##ric": 4959,
      "envir": 4960,
      "prom": 4961,
      "paix": 4962,
      "autor": 4963,
      "coopération": 4964,
      "dél": 4965,
      "##tection": 4966,
      "##ez": 4967,
      "##ici": 4968,
      "cap": 4969,
      "##im": 4970,
      "##lig": 4971,
      "##ances": 4972,
      "lég": 4973,
      "dur": 4974,
      "ba": 4975,
      "soit": 4976,
      "déb": 4977,
      "contin": 4978,
      "##rique": 4979,
      "##iste": 4980,
      "##mbre": 4981,
      "politique": 4982,
      "matière": 4983,
      "confor": 4984,
      "direc": 4985,
      "##ariat": 4986,
      "##onc": 4987,
      "##ili": 4988,
      "utilis": 4989,
      "eng": 4990,
      "possi": 4991,
      "protection": 4992,
      "procéd": 4993,
      "##èmes": 4994,
      "##des": 4995,
      "recommand": 4996,
      "##gé": 4997,
      "était": 4998,
      "fr": 4999,
      "da": 5000,
      "dém": 5001,
      "lib": 5002,
      "##fication": 5003,
      "##ress": 5004,
      "ressources": 5005,
      "##ulta": 5006,
      "prév": 5007,
      "loi": 5008,
      "assur": 5009,
      "économique": 5010,
      "##ing": 5011,
      "bure": 5012,
      "##abil": 5013,
      "##antes": 5014,
      "consi": 5015,
      "situation": 5016,
      "##ot": 5017,
      "inf": 5018,
      "##isme": 5019,
      "inc": 5020,
      "cours": 5021,
      "##ente": 5022,
      "##uer": 5023,
      "fonction": 5024,
      "action": 5025,
      "politiques": 5026,
      "15": 5027,
      "##ca": 5028,
      "ordre": 5029,
      "dés": 5030,
      "20": 5031,
      "cha": 5032,
      "##ls": 5033,
      "contribu": 5034,
      "probl": 5035,
      "##itre": 5036,
      "me": 5037,
      "##xe": 5038,
      "##uis": 5039,
      "##fs": 5040,
      "répu": 5041,
      "appro": 5042,
      "##mination": 5043,
      "notre": 5044,
      "##aines": 5045,
      "paragraphe": 5046,
      "éch": 5047,
      "trois": 5048,
      "respons": 5049,
      "##ctions": 5050,
      "programmes": 5051,
      "gar": 5052,
      "républi": 5053,
      "respec": 5054,
      "##quer": 5055,
      "##rer": 5056,
      "niveau": 5057,
      "avant": 5058,
      "##orte": 5059,
      "république": 5060,
      "##tés": 5061,
      "##onnement": 5062,
      "préc": 5063,
      "##pes": 5064,
      "##oivent": 5065,
      "œu": 5066,
      "im": 5067,
      "européenne": 5068,
      "cour": 5069,
      "où": 5070,
      "##pul": 5071,
      "##rie": 5072,
      "demande": 5073,
      "autre": 5074,
      "##ines": 5075,
      "##ats": 5076,
      "sal": 5077,
      "##ore": 5078,
      "##tive": 5079,
      "pe": 5080,
      "ph": 5081,
      "##lic": 5082,
      "ver": 5083,
      "particulier": 5084,
      "##seign": 5085,
      "maint": 5086,
      "der": 5087,
      "stra": 5088,
      "seu": 5089,
      "vue": 5090,
      "is": 5091,
      "examen": 5092,
      "##tée": 5093,
      "intég": 5094,
      "financi": 5095,
      "informations": 5096,
      "soi": 5097,
      "demand": 5098,
      "opé": 5099,
      "sant": 5100,
      "améli": 5101,
      "##pris": 5102,
      "mal": 5103,
      "union": 5104,
      "organisations": 5105,
      "ori": 5106,
      "##uri": 5107,
      "som": 5108,
      "##nce": 5109,
      "can": 5110,
      "##tionn": 5111,
      "men": 5112,
      "##ond": 5113,
      "plu": 5114,
      "constitu": 5115,
      "amélior": 5116,
      "ess": 5117,
      "ges": 5118,
      "doivent": 5119,
      "sign": 5120,
      "##ong": 5121,
      "stratég": 5122,
      "consid": 5123,
      "information": 5124,
      "disp": 5125,
      "popul": 5126,
      "##atique": 5127,
      "avait": 5128,
      "prof": 5129,
      "condi": 5130,
      "dern": 5131,
      "péri": 5132,
      "très": 5133,
      "##mément": 5134,
      "œuvre": 5135,
      "santé": 5136,
      "##ier": 5137,
      "##entes": 5138,
      "elles": 5139,
      "##écu": 5140,
      "##bilité": 5141,
      "votre": 5142,
      "mont": 5143,
      "environnement": 5144,
      "nor": 5145,
      "2005": 5146,
      "fé": 5147,
      "bes": 5148,
      "données": 5149,
      "conformément": 5150,
      "avoir": 5151,
      "bureau": 5152,
      "effic": 5153,
      "fonds": 5154,
      "esp": 5155,
      "grand": 5156,
      "place": 5157,
      "éval": 5158,
      "transp": 5159,
      "gestion": 5160,
      "##eaux": 5161,
      "##pec": 5162,
      "étu": 5163,
      "const": 5164,
      "##th": 5165,
      "##été": 5166,
      "réf": 5167,
      "##era": 5168,
      "examin": 5169,
      "pres": 5170,
      "cin": 5171,
      "lui": 5172,
      "document": 5173,
      "temp": 5174,
      "beso": 5175,
      "nu": 5176,
      "##su": 5177,
      "12": 5178,
      "mission": 5179,
      "public": 5180,
      "act": 5181,
      "13": 5182,
      "##ill": 5183,
      "2004": 5184,
      "##aiss": 5185,
      "process": 5186,
      "march": 5187,
      "pério": 5188,
      "engag": 5189,
      "rem": 5190,
      "civ": 5191,
      "processus": 5192,
      "contr": 5193,
      "bud": 5194,
      "base": 5195,
      "2001": 5196,
      "##issement": 5197,
      "exemp": 5198,
      "##elon": 5199,
      "##puis": 5200,
      "2006": 5201,
      "établ": 5202,
      "mettre": 5203,
      "fam": 5204,
      "initi": 5205,
      "##ire": 5206,
      "trouv": 5207,
      "obs": 5208,
      "exécu": 5209,
      "##tives": 5210,
      "##raient": 5211,
      "##uses": 5212,
      "moins": 5213,
      "dispositions": 5214,
      "##sions": 5215,
      "##ex": 5216,
      "##tant": 5217,
      "té": 5218,
      "priv": 5219,
      "sera": 5220,
      "##tel": 5221,
      "2000": 5222,
      "encore": 5223,
      "efforts": 5224,
      "inv": 5225,
      "règlement": 5226,
      "port": 5227,
      "sub": 5228,
      "11": 5229,
      "coord": 5230,
      "hu": 5231,
      "##all": 5232,
      "2003": 5233,
      "##ages": 5234,
      "ans": 5235,
      "effet": 5236,
      "supp": 5237,
      "titre": 5238,
      "prendre": 5239,
      "peuvent": 5240,
      "effec": 5241,
      "aide": 5242,
      "déclaration": 5243,
      "voir": 5244,
      "##abilité": 5245,
      "travaux": 5246,
      "depuis": 5247,
      "élabor": 5248,
      "2002": 5249,
      "cri": 5250,
      "##lément": 5251,
      "édu": 5252,
      "he": 5253,
      "lut": 5254,
      "##ver": 5255,
      "##atiques": 5256,
      "rédu": 5257,
      "##voir": 5258,
      "##istance": 5259,
      "vou": 5260,
      "##cup": 5261,
      "observ": 5262,
      "##ération": 5263,
      "##uridi": 5264,
      "quel": 5265,
      "anne": 5266,
      "juridi": 5267,
      "aucu": 5268,
      "dol": 5269,
      "##tis": 5270,
      "fi": 5271,
      "égard": 5272,
      "national": 5273,
      "onu": 5274,
      "nos": 5275,
      "défin": 5276,
      "spécial": 5277,
      "euro": 5278,
      "##ateurs": 5279,
      "ret": 5280,
      "obli": 5281,
      "selon": 5282,
      "dollar": 5283,
      "propos": 5284,
      "##fic": 5285,
      "proposi": 5286,
      "compris": 5287,
      "conn": 5288,
      "18": 5289,
      "##mis": 5290,
      "cli": 5291,
      "secrétariat": 5292,
      "ext": 5293,
      "domaine": 5294,
      "##téri": 5295,
      "personnel": 5296,
      "garant": 5297,
      "délég": 5298,
      "milli": 5299,
      "lieu": 5300,
      "vie": 5301,
      "affaires": 5302,
      "##itaire": 5303,
      "loc": 5304,
      "##la": 5305,
      "appui": 5306,
      "##ites": 5307,
      "##sieurs": 5308,
      "part": 5309,
      "empl": 5310,
      "communi": 5311,
      "formation": 5312,
      "2007": 5313,
      "##tées": 5314,
      "dollars": 5315,
      "cro": 5316,
      "résulta": 5317,
      "cela": 5318,
      "##auté": 5319,
      "sep": 5320,
      "aur": 5321,
      "justi": 5322,
      "établi": 5323,
      "##hi": 5324,
      "note": 5325,
      "##omp": 5326,
      "##alisation": 5327,
      "temps": 5328,
      "capac": 5329,
      "##ones": 5330,
      "14": 5331,
      "objectifs": 5332,
      "devrait": 5333,
      "##her": 5334,
      "compé": 5335,
      "assurer": 5336,
      "lan": 5337,
      "gra": 5338,
      "cult": 5339,
      "service": 5340,
      "oblig": 5341,
      "déce": 5342,
      "##iser": 5343,
      "différ": 5344,
      "accès": 5345,
      "tant": 5346,
      "##enir": 5347,
      "instru": 5348,
      "rais": 5349,
      "entrepr": 5350,
      "jeu": 5351,
      "##ruct": 5352,
      "pén": 5353,
      "##ov": 5354,
      "##one": 5355,
      "certains": 5356,
      "30": 5357,
      "équi": 5358,
      "monde": 5359,
      "##semble": 5360,
      "communauté": 5361,
      "annexe": 5362,
      "chaque": 5363,
      "id": 5364,
      "décembre": 5365,
      "2008": 5366,
      "armes": 5367,
      "##rations": 5368,
      "représentant": 5369,
      "##rée": 5370,
      "prov": 5371,
      "##sition": 5372,
      "##tention": 5373,
      "outre": 5374,
      "rôle": 5375,
      "op": 5376,
      "donc": 5377,
      "mi": 5378,
      "##oup": 5379,
      "##cid": 5380,
      "manière": 5381,
      "##isse": 5382,
      "éducation": 5383,
      "sex": 5384,
      "##dra": 5385,
      "##ror": 5386,
      "conditions": 5387,
      "concerne": 5388,
      "ensemble": 5389,
      "première": 5390,
      "parten": 5391,
      "pass": 5392,
      "lim": 5393,
      "pau": 5394,
      "plusieurs": 5395,
      "trait": 5396,
      "pris": 5397,
      "##rang": 5398,
      "hô": 5399,
      "reconn": 5400,
      "tex": 5401,
      "rapports": 5402,
      "##qué": 5403,
      "légis": 5404,
      "##ention": 5405,
      "europe": 5406,
      "associ": 5407,
      "internationales": 5408,
      "confl": 5409,
      "fonctionn": 5410,
      "vers": 5411,
      "institutions": 5412,
      "cham": 5413,
      "discri": 5414,
      "intéri": 5415,
      "##fier": 5416,
      "société": 5417,
      "législ": 5418,
      "##can": 5419,
      "faci": 5420,
      "minist": 5421,
      "poursu": 5422,
      "##yant": 5423,
      "afrique": 5424,
      "##lè": 5425,
      "parlement": 5426,
      "hum": 5427,
      "recher": 5428,
      "contrôle": 5429,
      "trib": 5430,
      "divers": 5431,
      "##ains": 5432,
      "territ": 5433,
      "vol": 5434,
      "##issant": 5435,
      "human": 5436,
      "renforcer": 5437,
      "visant": 5438,
      "ii": 5439,
      "the": 5440,
      "produits": 5441,
      "séance": 5442,
      "##erts": 5443,
      "##itaires": 5444,
      "nouveau": 5445,
      "mesure": 5446,
      "ceux": 5447,
      "cr": 5448,
      "unis": 5449,
      "fois": 5450,
      "année": 5451,
      "##ense": 5452,
      "offici": 5453,
      "secteur": 5454,
      "ty": 5455,
      "16": 5456,
      "haut": 5457,
      "##ocra": 5458,
      "projets": 5459,
      "##illes": 5460,
      "##ination": 5461,
      "mod": 5462,
      "deuxième": 5463,
      "encour": 5464,
      "##rant": 5465,
      "initiati": 5466,
      "social": 5467,
      "##tien": 5468,
      "aid": 5469,
      "modi": 5470,
      "##nent": 5471,
      "soient": 5472,
      "réc": 5473,
      "##ug": 5474,
      "période": 5475,
      "suite": 5476,
      "réalis": 5477,
      "nég": 5478,
      "relatives": 5479,
      "##ancement": 5480,
      "démocra": 5481,
      "soulig": 5482,
      "21": 5483,
      "grande": 5484,
      "avons": 5485,
      "hui": 5486,
      "terror": 5487,
      "nat": 5488,
      "long": 5489,
      "souh": 5490,
      "17": 5491,
      "dou": 5492,
      "résultats": 5493,
      "##êt": 5494,
      "groupes": 5495,
      "##rès": 5496,
      "viol": 5497,
      "to": 5498,
      "##ches": 5499,
      "##mer": 5500,
      "##ile": 5501,
      "sujet": 5502,
      "déj": 5503,
      "problèmes": 5504,
      "recommandations": 5505,
      "mis": 5506,
      "viole": 5507,
      "premier": 5508,
      "tribun": 5509,
      "##istes": 5510,
      "##ateur": 5511,
      "ur": 5512,
      "centre": 5513,
      "bi": 5514,
      "##uel": 5515,
      "##act": 5516,
      "anal": 5517,
      "lutte": 5518,
      "##get": 5519,
      "mécan": 5520,
      "##atis": 5521,
      "bén": 5522,
      "exemple": 5523,
      "rep": 5524,
      "moyen": 5525,
      "justice": 5526,
      "##vant": 5527,
      "ris": 5528,
      "assistance": 5529,
      "pouvoir": 5530,
      "répon": 5531,
      "##oni": 5532,
      "prot": 5533,
      "exerci": 5534,
      "uni": 5535,
      "pendant": 5536,
      "rou": 5537,
      "médi": 5538,
      "sem": 5539,
      "##ges": 5540,
      "nationale": 5541,
      "mondiale": 5542,
      "##iens": 5543,
      "##jour": 5544,
      "##aî": 5545,
      "budget": 5546,
      "esti": 5547,
      "population": 5548,
      "possible": 5549,
      "souhait": 5550,
      "ayant": 5551,
      "##péri": 5552,
      "contra": 5553,
      "étaient": 5554,
      "actuelle": 5555,
      "##fois": 5556,
      "discrimination": 5557,
      "laque": 5558,
      "##oles": 5559,
      "nouvelle": 5560,
      "##ences": 5561,
      "laquelle": 5562,
      "##rent": 5563,
      "évaluation": 5564,
      "appel": 5565,
      "##ass": 5566,
      "documents": 5567,
      "ple": 5568,
      "faç": 5569,
      "juin": 5570,
      "mand": 5571,
      "utilisation": 5572,
      "peup": 5573,
      "consult": 5574,
      "mul": 5575,
      "ant": 5576,
      "perman": 5577,
      "##da": 5578,
      "##olutions": 5579,
      "##erce": 5580,
      "##itation": 5581,
      "intér": 5582,
      "peti": 5583,
      "administration": 5584,
      "##gment": 5585,
      "##int": 5586,
      "oct": 5587,
      "voi": 5588,
      "organismes": 5589,
      "essenti": 5590,
      "étrang": 5591,
      "qualité": 5592,
      "cinqu": 5593,
      "exercice": 5594,
      "##atri": 5595,
      "participation": 5596,
      "##ém": 5597,
      "déci": 5598,
      "emploi": 5599,
      "all": 5600,
      "##quê": 5601,
      "sp": 5602,
      "##ron": 5603,
      "ind": 5604,
      "débat": 5605,
      "années": 5606,
      "sud": 5607,
      "##rés": 5608,
      "enfant": 5609,
      "moyens": 5610,
      "protoc": 5611,
      "fig": 5612,
      "##tation": 5613,
      "consé": 5614,
      "##loy": 5615,
      "##ensi": 5616,
      "atte": 5617,
      "##iers": 5618,
      "financement": 5619,
      "dépar": 5620,
      "##az": 5621,
      "##istre": 5622,
      "##èrement": 5623,
      "béné": 5624,
      "sc": 5625,
      "savoir": 5626,
      "obten": 5627,
      "##oli": 5628,
      "améliorer": 5629,
      "mme": 5630,
      "faut": 5631,
      "cam": 5632,
      "che": 5633,
      "administra": 5634,
      "enseign": 5635,
      "sus": 5636,
      "##illet": 5637,
      "éli": 5638,
      "façon": 5639,
      "##cher": 5640,
      "technique": 5641,
      "##clé": 5642,
      "préoc": 5643,
      "##dép": 5644,
      "commiss": 5645,
      "orient": 5646,
      "augment": 5647,
      "ang": 5648,
      "chang": 5649,
      "##be": 5650,
      "##pose": 5651,
      "prior": 5652,
      "technolog": 5653,
      "##né": 5654,
      "25": 5655,
      "promo": 5656,
      "ach": 5657,
      "##fique": 5658,
      "mondial": 5659,
      "progrès": 5660,
      "seront": 5661,
      "nov": 5662,
      "nuclé": 5663,
      "déjà": 5664,
      "européen": 5665,
      "cau": 5666,
      "durable": 5667,
      "heures": 5668,
      "nécessaire": 5669,
      "commerce": 5670,
      "##vor": 5671,
      "opérations": 5672,
      "##anc": 5673,
      "rap": 5674,
      "représentants": 5675,
      "télé": 5676,
      "##..": 5677,
      "élect": 5678,
      "objet": 5679,
      "##cti": 5680,
      "24": 5681,
      "appar": 5682,
      "##venir": 5683,
      "ir": 5684,
      "déter": 5685,
      "2009": 5686,
      "##sieur": 5687,
      "monsieur": 5688,
      "important": 5689,
      "log": 5690,
      "gu": 5691,
      "renforce": 5692,
      "éner": 5693,
      "##ager": 5694,
      "##mo": 5695,
      "nouvelles": 5696,
      "besoins": 5697,
      "##if": 5698,
      "##até": 5699,
      "rév": 5700,
      "##érer": 5701,
      "##cte": 5702,
      "div": 5703,
      "nécessaires": 5704,
      "jusqu": 5705,
      "fer": 5706,
      "adoption": 5707,
      "prépar": 5708,
      "univers": 5709,
      "violence": 5710,
      "ouv": 5711,
      "victi": 5712,
      "##agne": 5713,
      "experts": 5714,
      "##fici": 5715,
      "cit": 5716,
      "##rouv": 5717,
      "bas": 5718,
      "ali": 5719,
      "##oires": 5720,
      "création": 5721,
      "facil": 5722,
      "économiques": 5723,
      "pales": 5724,
      "explo": 5725,
      "##ût": 5726,
      "dét": 5727,
      "recherche": 5728,
      "juillet": 5729,
      "##tiss": 5730,
      "domaines": 5731,
      "##aï": 5732,
      "##ament": 5733,
      "ni": 5734,
      "##forme": 5735,
      "##out": 5736,
      "meille": 5737,
      "promouv": 5738,
      "dit": 5739,
      "situ": 5740,
      "compren": 5741,
      "coordination": 5742,
      "étant": 5743,
      "infra": 5744,
      "tenu": 5745,
      "promotion": 5746,
      "vale": 5747,
      "##veur": 5748,
      "date": 5749,
      "procédure": 5750,
      "000": 5751,
      "inves": 5752,
      "félic": 5753,
      "isra": 5754,
      "prises": 5755,
      "égalité": 5756,
      "importance": 5757,
      "##ienne": 5758,
      "##gie": 5759,
      "hôtel": 5760,
      "respect": 5761,
      "millions": 5762,
      ");": 5763,
      "renforcement": 5764,
      "promouvoir": 5765,
      "exist": 5766,
      "and": 5767,
      "conclu": 5768,
      "##ression": 5769,
      "site": 5770,
      "autorités": 5771,
      "table": 5772,
      "avaient": 5773,
      "souv": 5774,
      "##quent": 5775,
      "reg": 5776,
      "22": 5777,
      "##onne": 5778,
      "arm": 5779,
      "seulement": 5780,
      "jou": 5781,
      "fondament": 5782,
      "pauvre": 5783,
      "accomp": 5784,
      "auto": 5785,
      "##vement": 5786,
      "principes": 5787,
      "enquê": 5788,
      "méth": 5789,
      "personne": 5790,
      "destin": 5791,
      "fra": 5792,
      "prévention": 5793,
      "septe": 5794,
      "renseign": 5795,
      "certaines": 5796,
      "féd": 5797,
      "indép": 5798,
      "##stes": 5799,
      "devraient": 5800,
      "nationales": 5801,
      "23": 5802,
      "##ession": 5803,
      "entreprises": 5804,
      "internationaux": 5805,
      "traité": 5806,
      "mandat": 5807,
      "##ront": 5808,
      "septembre": 5809,
      "colle": 5810,
      "présente": 5811,
      "serait": 5812,
      "adopté": 5813,
      "pauvreté": 5814,
      "##rier": 5815,
      "##ellement": 5816,
      "##jours": 5817,
      "##quel": 5818,
      "protocole": 5819,
      "sociale": 5820,
      "##issent": 5821,
      "commerci": 5822,
      "##mission": 5823,
      "##isé": 5824,
      "proposition": 5825,
      "##lande": 5826,
      "maintien": 5827,
      "##ali": 5828,
      "##jourd": 5829,
      "acqu": 5830,
      "jeunes": 5831,
      "aujourd": 5832,
      "##êts": 5833,
      "##ét": 5834,
      "mois": 5835,
      "capacités": 5836,
      "toutefois": 5837,
      "favor": 5838,
      "##rog": 5839,
      "».": 5840,
      "aj": 5841,
      "eu": 5842,
      "suivi": 5843,
      "centra": 5844,
      "##ôt": 5845,
      "##aille": 5846,
      "##ffis": 5847,
      "texte": 5848,
      "civil": 5849,
      "normes": 5850,
      "novem": 5851,
      "décisions": 5852,
      "formul": 5853,
      "toujours": 5854,
      "##ate": 5855,
      "celui": 5856,
      "##itul": 5857,
      "##atisf": 5858,
      "1999": 5859,
      "##cé": 5860,
      "indu": 5861,
      "##crip": 5862,
      "montant": 5863,
      "ord": 5864,
      "appu": 5865,
      "terme": 5866,
      "négoci": 5867,
      "liste": 5868,
      "##lam": 5869,
      "novembre": 5870,
      "objectif": 5871,
      "transport": 5872,
      "ara": 5873,
      "délégation": 5874,
      "##miner": 5875,
      "comb": 5876,
      "métho": 5877,
      "aider": 5878,
      "beau": 5879,
      "mars": 5880,
      "problème": 5881,
      "orig": 5882,
      "satisf": 5883,
      "lorsque": 5884,
      "##ril": 5885,
      "disponi": 5886,
      "comment": 5887,
      "dess": 5888,
      "cn": 5889,
      "##adi": 5890,
      "##istan": 5891,
      "faveur": 5892,
      "##ada": 5893,
      "troisième": 5894,
      "of": 5895,
      "transf": 5896,
      "mer": 5897,
      "nouveaux": 5898,
      "terrorisme": 5899,
      "remp": 5900,
      "##ège": 5901,
      "stratégie": 5902,
      "ministère": 5903,
      "##mement": 5904,
      "constru": 5905,
      "##tres": 5906,
      "##cc": 5907,
      "exig": 5908,
      "octo": 5909,
      "##bie": 5910,
      "salle": 5911,
      "examiner": 5912,
      "responsabilité": 5913,
      "type": 5914,
      "octobre": 5915,
      "##cipe": 5916,
      "reç": 5917,
      "abs": 5918,
      "dépens": 5919,
      "dist": 5920,
      "gouvernements": 5921,
      "##ay": 5922,
      "let": 5923,
      "donner": 5924,
      "##agn": 5925,
      "sein": 5926,
      "rappor": 5927,
      "atta": 5928,
      "attention": 5929,
      "alors": 5930,
      "pourrait": 5931,
      "indust": 5932,
      "pratiques": 5933,
      "##enant": 5934,
      "por": 5935,
      "att": 5936,
      "continuer": 5937,
      "##dici": 5938,
      "marché": 5939,
      "forme": 5940,
      "dépl": 5941,
      "communication": 5942,
      "communaut": 5943,
      "inté": 5944,
      "rev": 5945,
      "##atéra": 5946,
      "supplément": 5947,
      "poursuiv": 5948,
      "organes": 5949,
      "aucune": 5950,
      "lar": 5951,
      "plein": 5952,
      "viv": 5953,
      "renseignements": 5954,
      "bénéfici": 5955,
      "bar": 5956,
      "tribunal": 5957,
      "efficace": 5958,
      "##omm": 5959,
      "##ori": 5960,
      "celle": 5961,
      "29": 5962,
      "victimes": 5963,
      "auprès": 5964,
      "##issance": 5965,
      "raison": 5966,
      "we": 5967,
      "relative": 5968,
      "adress": 5969,
      "extra": 5970,
      "réunions": 5971,
      "établissement": 5972,
      "statu": 5973,
      "préoccup": 5974,
      "élé": 5975,
      "jan": 5976,
      "expri": 5977,
      "accep": 5978,
      "fournir": 5979,
      "aliment": 5980,
      "én": 5981,
      "six": 5982,
      "taux": 5983,
      "collabor": 5984,
      "##médi": 5985,
      "rappel": 5986,
      "famille": 5987,
      "201": 5988,
      "sol": 5989,
      "##pri": 5990,
      "palestin": 5991,
      "cir": 5992,
      "approuv": 5993,
      "eau": 5994,
      "##vier": 5995,
      "soutien": 5996,
      "grâ": 5997,
      "gen": 5998,
      "...": 5999,
      "31": 6000,
      "»,": 6001,
      "grâce": 6002,
      "pn": 6003,
      "##uels": 6004,
      "##eurs": 6005,
      "sommes": 6006,
      "systèmes": 6007,
      "em": 6008,
      "struct": 6009,
      "vé": 6010,
      "police": 6011,
      "cultur": 6012,
      "amend": 6013,
      "avril": 6014,
      "éléments": 6015,
      "##reg": 6016,
      "intéress": 6017,
      "expéri": 6018,
      "##dit": 6019,
      "civile": 6020,
      "juridique": 6021,
      "matéri": 6022,
      "ve": 6023,
      "dépenses": 6024,
      "##ueur": 6025,
      "##fiques": 6026,
      "consac": 6027,
      "sci": 6028,
      "##gn": 6029,
      "fais": 6030,
      "##ueil": 6031,
      "nécessité": 6032,
      "profession": 6033,
      "afric": 6034,
      "hab": 6035,
      "##ange": 6036,
      "canada": 6037,
      "vertu": 6038,
      "ici": 6039,
      "nombreux": 6040,
      "techniques": 6041,
      "nationaux": 6042,
      "##vient": 6043,
      "##igne": 6044,
      "intérieur": 6045,
      "citoy": 6046,
      "sais": 6047,
      "26": 6048,
      "statis": 6049,
      "pertin": 6050,
      "##cles": 6051,
      "celles": 6052,
      "procédures": 6053,
      "conv": 6054,
      "##cht": 6055,
      "besoin": 6056,
      "##alités": 6057,
      "prix": 6058,
      "qua": 6059,
      "occup": 6060,
      "san": 6061,
      "règles": 6062,
      "territoire": 6063,
      "législation": 6064,
      "ven": 6065,
      "fins": 6066,
      "quant": 6067,
      "##lob": 6068,
      "##rodu": 6069,
      "production": 6070,
      "élaboration": 6071,
      "hau": 6072,
      "maj": 6073,
      "consulta": 6074,
      "urg": 6075,
      "##ub": 6076,
      "lesque": 6077,
      "##joint": 6078,
      "mieux": 6079,
      "enreg": 6080,
      "us": 6081,
      "##ugi": 6082,
      "publique": 6083,
      "chap": 6084,
      "principe": 6085,
      "##ève": 6086,
      "##coup": 6087,
      "aucun": 6088,
      "effectu": 6089,
      "ref": 6090,
      "code": 6091,
      "conte": 6092,
      "ban": 6093,
      "##acité": 6094,
      "vig": 6095,
      "actes": 6096,
      "add": 6097,
      "beaucoup": 6098,
      "exécution": 6099,
      "confi": 6100,
      "##aint": 6101,
      "janvier": 6102,
      "pratique": 6103,
      "##han": 6104,
      "aspec": 6105,
      "##are": 6106,
      "##ture": 6107,
      "##ogue": 6108,
      "réfugi": 6109,
      "donné": 6110,
      "##vé": 6111,
      "##hicu": 6112,
      "##indre": 6113,
      "exc": 6114,
      "requ": 6115,
      "##est": 6116,
      "présenté": 6117,
      "##con": 6118,
      "##amment": 6119,
      "occa": 6120,
      "certain": 6121,
      "provis": 6122,
      "département": 6123,
      "conséque": 6124,
      "27": 6125,
      "protég": 6126,
      "actuellement": 6127,
      "opération": 6128,
      "réser": 6129,
      "cou": 6130,
      "face": 6131,
      "rece": 6132,
      "##rence": 6133,
      "charg": 6134,
      "analy": 6135,
      "simp": 6136,
      "##aces": 6137,
      "rapporteur": 6138,
      "sensi": 6139,
      "véhicu": 6140,
      "tels": 6141,
      "pi": 6142,
      "##ières": 6143,
      "##erté": 6144,
      "##xte": 6145,
      "##arti": 6146,
      "##atif": 6147,
      "apport": 6148,
      "28": 6149,
      "défini": 6150,
      "rus": 6151,
      "tot": 6152,
      "avis": 6153,
      "connaiss": 6154,
      "statut": 6155,
      "résolutions": 6156,
      "points": 6157,
      "judici": 6158,
      "devant": 6159,
      "quelques": 6160,
      "chargé": 6161,
      "particulièrement": 6162,
      "condu": 6163,
      "professionn": 6164,
      "figur": 6165,
      "différents": 6166,
      "##ception": 6167,
      "permettre": 6168,
      "créer": 6169,
      "prise": 6170,
      "consultations": 6171,
      "glob": 6172,
      "cô": 6173,
      "réa": 6174,
      "198": 6175,
      "abord": 6176,
      "ira": 6177,
      "instruments": 6178,
      "traitement": 6179,
      "spéciale": 6180,
      "##rir": 6181,
      "##lais": 6182,
      "1er": 6183,
      "##inaire": 6184,
      "désar": 6185,
      "vos": 6186,
      "puis": 6187,
      "liberté": 6188,
      "zones": 6189,
      "##iller": 6190,
      "clim": 6191,
      "conflits": 6192,
      "aille": 6193,
      "affec": 6194,
      "intérêt": 6195,
      "décidé": 6196,
      "journ": 6197,
      "##ograph": 6198,
      "intention": 6199,
      "fau": 6200,
      "voudra": 6201,
      "contributions": 6202,
      "régions": 6203,
      "régi": 6204,
      "na": 6205,
      "##érences": 6206,
      "ailleurs": 6207,
      "##bes": 6208,
      "dial": 6209,
      "hommes": 6210,
      "autocht": 6211,
      "moment": 6212,
      "précéd": 6213,
      "enseignement": 6214,
      "cong": 6215,
      "habit": 6216,
      "lang": 6217,
      "arri": 6218,
      "##ose": 6219,
      "chi": 6220,
      "##ismes": 6221,
      "nucléaires": 6222,
      "désarmement": 6223,
      "parmi": 6224,
      "##bilisation": 6225,
      "envis": 6226,
      "devons": 6227,
      "appropri": 6228,
      "##tie": 6229,
      "occasion": 6230,
      "quatre": 6231,
      "natur": 6232,
      "humanitaire": 6233,
      "##osé": 6234,
      "camp": 6235,
      "cep": 6236,
      "indépend": 6237,
      "proch": 6238,
      "unique": 6239,
      "agit": 6240,
      "forces": 6241,
      "gouvernementales": 6242,
      "réfugiés": 6243,
      "##atoire": 6244,
      "démocratique": 6245,
      "membre": 6246,
      "##ds": 6247,
      "anglais": 6248,
      "##aître": 6249,
      "conta": 6250,
      "sû": 6251,
      "section": 6252,
      "obligations": 6253,
      "telles": 6254,
      "fut": 6255,
      "énergie": 6256,
      "détail": 6257,
      "mécanismes": 6258,
      "étude": 6259,
      "investiss": 6260,
      "nord": 6261,
      "applic": 6262,
      "appliquer": 6263,
      "provisoire": 6264,
      "efficacité": 6265,
      "##tue": 6266,
      "conflit": 6267,
      "relations": 6268,
      "web": 6269,
      "considér": 6270,
      "##tient": 6271,
      "demandé": 6272,
      "ouvert": 6273,
      "##ions": 6274,
      "voudrais": 6275,
      "##nces": 6276,
      "propositions": 6277,
      "catég": 6278,
      "##ide": 6279,
      "réalisation": 6280,
      "mig": 6281,
      "catégor": 6282,
      "arg": 6283,
      "lois": 6284,
      "##tième": 6285,
      "relatifs": 6286,
      "tel": 6287,
      "##anger": 6288,
      "vigueur": 6289,
      "surve": 6290,
      "régional": 6291,
      "lu": 6292,
      "##resp": 6293,
      "dialogue": 6294,
      "ajou": 6295,
      "intitul": 6296,
      "##xim": 6297,
      "sociaux": 6298,
      "initiatives": 6299,
      "##ida": 6300,
      "##iné": 6301,
      "disposition": 6302,
      "régionales": 6303,
      "##venu": 6304,
      "60": 6305,
      "##anie": 6306,
      "arr": 6307,
      "niveaux": 6308,
      "postes": 6309,
      "##ène": 6310,
      "autochtones": 6311,
      "har": 6312,
      "conten": 6313,
      "employ": 6314,
      "suffis": 6315,
      "initiative": 6316,
      "formes": 6317,
      "lorsqu": 6318,
      "##euse": 6319,
      "étudi": 6320,
      "opp": 6321,
      "relatif": 6322,
      "réglement": 6323,
      "roy": 6324,
      "coordonn": 6325,
      "##oût": 6326,
      "tenue": 6327,
      "trouver": 6328,
      "tir": 6329,
      "couv": 6330,
      "ministre": 6331,
      "accords": 6332,
      "obtenir": 6333,
      "50": 6334,
      "dernier": 6335,
      "bl": 6336,
      "fix": 6337,
      "amérique": 6338,
      "remerci": 6339,
      "gé": 6340,
      "##ret": 6341,
      "relig": 6342,
      "sommet": 6343,
      "corresp": 6344,
      "##érant": 6345,
      "comple": 6346,
      "font": 6347,
      "fran": 6348,
      "##uelles": 6349,
      "bon": 6350,
      "élimination": 6351,
      "cependant": 6352,
      "participer": 6353,
      "effets": 6354,
      "souvent": 6355,
      "réduction": 6356,
      "##vrier": 6357,
      "rendre": 6358,
      "imm": 6359,
      "##ger": 6360,
      "février": 6361,
      "travaille": 6362,
      "it": 6363,
      "entra": 6364,
      "recours": 6365,
      "continu": 6366,
      "##yer": 6367,
      "##cus": 6368,
      "alle": 6369,
      "##fié": 6370,
      "##ative": 6371,
      "bonne": 6372,
      "souten": 6373,
      "articles": 6374,
      "rend": 6375,
      "consultatif": 6376,
      "établir": 6377,
      "eux": 6378,
      "présenter": 6379,
      "rele": 6380,
      "constitution": 6381,
      "financières": 6382,
      "##crit": 6383,
      "défense": 6384,
      "##ow": 6385,
      "commissaire": 6386,
      "##asse": 6387,
      "analyse": 6388,
      "##tage": 6389,
      "valeur": 6390,
      "cinq": 6391,
      "utiliser": 6392,
      "réduire": 6393,
      "##ditionn": 6394,
      "aspects": 6395,
      "val": 6396,
      "jam": 6397,
      "véri": 6398,
      "citoyens": 6399,
      "##issements": 6400,
      "##fications": 6401,
      "offre": 6402,
      "pacte": 6403,
      "##euses": 6404,
      "force": 6405,
      "faciliter": 6406,
      "br": 6407,
      "incid": 6408,
      "garantir": 6409,
      "équipe": 6410,
      "amb": 6411,
      "veu": 6412,
      "##quées": 6413,
      "##lent": 6414,
      "correspond": 6415,
      "impos": 6416,
      "possibilité": 6417,
      "existe": 6418,
      "##yp": 6419,
      "##lant": 6420,
      "tenir": 6421,
      "##rées": 6422,
      "##atives": 6423,
      "adap": 6424,
      "##tra": 6425,
      "réaff": 6426,
      "hist": 6427,
      "ville": 6428,
      "oeu": 6429,
      "tran": 6430,
      "posi": 6431,
      "mention": 6432,
      "sida": 6433,
      "##ade": 6434,
      "reste": 6435,
      "femme": 6436,
      "##vantage": 6437,
      "contexte": 6438,
      "##ris": 6439,
      "terra": 6440,
      "fonctions": 6441,
      "##ww": 6442,
      "approche": 6443,
      "sau": 6444,
      "pol": 6445,
      "##ak": 6446,
      "1998": 6447,
      "##dic": 6448,
      "rati": 6449,
      "économie": 6450,
      "maintenant": 6451,
      "indiqué": 6452,
      "activité": 6453,
      "parce": 6454,
      "lettre": 6455,
      "fai": 6456,
      "août": 6457,
      "cinquante": 6458,
      "##dam": 6459,
      "différentes": 6460,
      "www": 6461,
      "davantage": 6462,
      "dispos": 6463,
      "directeur": 6464,
      "total": 6465,
      "tur": 6466,
      "install": 6467,
      "déli": 6468,
      "collaboration": 6469,
      "##assi": 6470,
      "##od": 6471,
      "pénale": 6472,
      "##ël": 6473,
      "guer": 6474,
      "distribu": 6475,
      "vote": 6476,
      "paci": 6477,
      "accro": 6478,
      "##mon": 6479,
      "expérience": 6480,
      "liv": 6481,
      "rempl": 6482,
      "intervention": 6483,
      "observations": 6484,
      "partenaires": 6485,
      "consomm": 6486,
      "série": 6487,
      "jo": 6488,
      "vih": 6489,
      "contrai": 6490,
      "##uve": 6491,
      "auteur": 6492,
      "soins": 6493,
      "biens": 6494,
      "ép": 6495,
      "réaffir": 6496,
      "direction": 6497,
      "iss": 6498,
      "voy": 6499,
      "jours": 6500,
      "diri": 6501,
      "new": 6502,
      "##action": 6503,
      "réforme": 6504,
      "capacité": 6505,
      "but": 6506,
      "##gét": 6507,
      "tort": 6508,
      "peuples": 6509,
      "atteint": 6510,
      "sens": 6511,
      "##ber": 6512,
      "55": 6513,
      "cal": 6514,
      "intégration": 6515,
      "han": 6516,
      "##ock": 6517,
      "délégations": 6518,
      "telle": 6519,
      "##ps": 6520,
      "nombreuses": 6521,
      "chambres": 6522,
      "minu": 6523,
      "neu": 6524,
      "siège": 6525,
      "moi": 6526,
      "collec": 6527,
      "##ension": 6528,
      "##ice": 6529,
      "lo": 6530,
      "croissance": 6531,
      "dég": 6532,
      "internet": 6533,
      "pleinement": 6534,
      "missions": 6535,
      "lequel": 6536,
      "quatri": 6537,
      "ait": 6538,
      "crimin": 6539,
      "tableau": 6540,
      "quatrième": 6541,
      "sorte": 6542,
      "permis": 6543,
      "urgence": 6544,
      "propri": 6545,
      "autorité": 6546,
      "##drait": 6547,
      "##ses": 6548,
      "origine": 6549,
      "##tivement": 6550,
      "tour": 6551,
      "gaz": 6552,
      "##vid": 6553,
      "propre": 6554,
      "##ification": 6555,
      "##uli": 6556,
      "réseau": 6557,
      "spécialis": 6558,
      "art": 6559,
      "##aume": 6560,
      "israël": 6561,
      "engagement": 6562,
      "##part": 6563,
      "capit": 6564,
      "adopter": 6565,
      "##ork": 6566,
      "##icul": 6567,
      "études": 6568,
      "division": 6569,
      "déclarations": 6570,
      "veiller": 6571,
      "va": 6572,
      "##êmes": 6573,
      "protéger": 6574,
      "traités": 6575,
      "régime": 6576,
      "ligne": 6577,
      "succ": 6578,
      "commen": 6579,
      "manif": 6580,
      "position": 6581,
      "régionaux": 6582,
      "adh": 6583,
      "risque": 6584,
      "peuple": 6585,
      "touch": 6586,
      "identi": 6587,
      "charge": 6588,
      "répondre": 6589,
      "##co": 6590,
      "exploitation": 6591,
      "fonctionnaires": 6592,
      "privé": 6593,
      "agissant": 6594,
      "sexes": 6595,
      "difficul": 6596,
      "##eure": 6597,
      "diverses": 6598,
      "royaume": 6599,
      "nature": 6600,
      "##xes": 6601,
      "participants": 6602,
      "négociations": 6603,
      "40": 6604,
      "juridiques": 6605,
      "ora": 6606,
      "claire": 6607,
      "électron": 6608,
      "dès": 6609,
      "##gement": 6610,
      "##atifs": 6611,
      "espace": 6612,
      "chacu": 6613,
      "suivants": 6614,
      "termes": 6615,
      "équip": 6616,
      "créé": 6617,
      "coû": 6618,
      "##quoi": 6619,
      "##aise": 6620,
      "technologies": 6621,
      "pourquoi": 6622,
      "france": 6623,
      "augmentation": 6624,
      "partir": 6625,
      "##titue": 6626,
      "pourraient": 6627,
      "enfin": 6628,
      "compos": 6629,
      "rapid": 6630,
      "parle": 6631,
      "##une": 6632,
      "environ": 6633,
      "##ablement": 6634,
      "dernière": 6635,
      "importante": 6636,
      "reconnaiss": 6637,
      "multi": 6638,
      "mill": 6639,
      "zone": 6640,
      "ap": 6641,
      "guerre": 6642,
      "##venus": 6643,
      "là": 6644,
      "contribuer": 6645,
      "ue": 6646,
      "##resse": 6647,
      "oeuvre": 6648,
      "enquête": 6649,
      "exer": 6650,
      "large": 6651,
      "principaux": 6652,
      "cinquième": 6653,
      "stratégies": 6654,
      "financière": 6655,
      "chapitre": 6656,
      "soix": 6657,
      "ri": 6658,
      "##uni": 6659,
      "réponse": 6660,
      "##table": 6661,
      "constitue": 6662,
      "suis": 6663,
      "om": 6664,
      "réserve": 6665,
      "millén": 6666,
      "culture": 6667,
      "entreprise": 6668,
      "amélioration": 6669,
      "asie": 6670,
      "prend": 6671,
      "publics": 6672,
      "plupart": 6673,
      "méthodes": 6674,
      "permettant": 6675,
      "##itable": 6676,
      "rest": 6677,
      "convient": 6678,
      "produit": 6679,
      "accueil": 6680,
      "##mettre": 6681,
      "surveill": 6682,
      "mêmes": 6683,
      "drog": 6684,
      "statistiques": 6685,
      "aura": 6686,
      "millénaire": 6687,
      "danger": 6688,
      "##èle": 6689,
      "évent": 6690,
      "crit": 6691,
      "uti": 6692,
      "centres": 6693,
      "be": 6694,
      "encourage": 6695,
      "soumis": 6696,
      "violations": 6697,
      "##usement": 6698,
      "##stances": 6699,
      "poursuivre": 6700,
      "iv": 6701,
      "dernières": 6702,
      "##ède": 6703,
      "changements": 6704,
      "mécanisme": 6705,
      "empê": 6706,
      "forum": 6707,
      "dispose": 6708,
      "avenir": 6709,
      "crise": 6710,
      "recommandation": 6711,
      "genève": 6712,
      "##oit": 6713,
      "##cupé": 6714,
      "fil": 6715,
      "argent": 6716,
      "tradu": 6717,
      "russie": 6718,
      "famili": 6719,
      "apporter": 6720,
      "chine": 6721,
      "permanent": 6722,
      "##nal": 6723,
      "mu": 6724,
      "plans": 6725,
      "contribution": 6726,
      "rur": 6727,
      "anci": 6728,
      "##gré": 6729,
      "cause": 6730,
      "##gne": 6731,
      "proposé": 6732,
      "##ications": 6733,
      "budgét": 6734,
      "##alie": 6735,
      "émission": 6736,
      "##qués": 6737,
      "net": 6738,
      "examiné": 6739,
      "59": 6740,
      "numé": 6741,
      "compét": 6742,
      "##oix": 6743,
      "prie": 6744,
      "lit": 6745,
      "sociales": 6746,
      "établissements": 6747,
      "industri": 6748,
      "##tine": 6749,
      "##tte": 6750,
      "chef": 6751,
      "##térie": 6752,
      "consoli": 6753,
      "disponibles": 6754,
      "##ruction": 6755,
      "caract": 6756,
      "individ": 6757,
      "58": 6758,
      "enregist": 6759,
      "risques": 6760,
      "##ingt": 6761,
      "57": 6762,
      "fournit": 6763,
      "##dation": 6764,
      "cy": 6765,
      "tâ": 6766,
      "bil": 6767,
      "faits": 6768,
      "responsables": 6769,
      "##roph": 6770,
      "vér": 6771,
      "multil": 6772,
      "élaborer": 6773,
      "diffici": 6774,
      "iii": 6775,
      "pnud": 6776,
      "traite": 6777,
      "résid": 6778,
      "marchés": 6779,
      "jap": 6780,
      "##teli": 6781,
      "##osition": 6782,
      "minim": 6783,
      "don": 6784,
      "ti": 6785,
      "association": 6786,
      "conclusions": 6787,
      "obligation": 6788,
      "énonc": 6789,
      "##quant": 6790,
      "introdu": 6791,
      "mort": 6792,
      "condam": 6793,
      "##ricul": 6794,
      "banque": 6795,
      "franç": 6796,
      "##vie": 6797,
      "près": 6798,
      "impli": 6799,
      "tu": 6800,
      "##cent": 6801,
      "##onti": 6802,
      "##éli": 6803,
      "judiciaire": 6804,
      "fédération": 6805,
      "##nie": 6806,
      "##lis": 6807,
      "##aît": 6808,
      "directives": 6809,
      "élar": 6810,
      "torture": 6811,
      "auxque": 6812,
      "##dition": 6813,
      "conjoint": 6814,
      "expli": 6815,
      "secteurs": 6816,
      "charte": 6817,
      "fac": 6818,
      "##rons": 6819,
      "soli": 6820,
      "afg": 6821,
      "supplémentaires": 6822,
      "japon": 6823,
      "56": 6824,
      "##vée": 6825,
      "norm": 6826,
      "avez": 6827,
      "candi": 6828,
      "##étés": 6829,
      "actions": 6830,
      "##usion": 6831,
      "ho": 6832,
      "recommande": 6833,
      "##rou": 6834,
      "##struct": 6835,
      "civils": 6836,
      "surveillance": 6837,
      "commune": 6838,
      "##ennes": 6839,
      "recru": 6840,
      "avanc": 6841,
      "consci": 6842,
      "100": 6843,
      "##ologique": 6844,
      "planification": 6845,
      "hy": 6846,
      "opérationn": 6847,
      "cher": 6848,
      "##lir": 6849,
      "dessus": 6850,
      "##éré": 6851,
      "affir": 6852,
      "##omb": 6853,
      "voie": 6854,
      "vari": 6855,
      "agricul": 6856,
      "faisant": 6857,
      "continue": 6858,
      "absence": 6859,
      "sup": 6860,
      "référence": 6861,
      "##ête": 6862,
      "solution": 6863,
      "ateli": 6864,
      "durant": 6865,
      "scol": 6866,
      "197": 6867,
      "deme": 6868,
      "grandes": 6869,
      "##ule": 6870,
      "déten": 6871,
      "engagements": 6872,
      "cata": 6873,
      "2010": 6874,
      "adoptée": 6875,
      "travailleurs": 6876,
      "entrée": 6877,
      "infrastruct": 6878,
      "bo": 6879,
      "bel": 6880,
      "demandes": 6881,
      "office": 6882,
      "##ttes": 6883,
      "##lég": 6884,
      "sour": 6885,
      "##cription": 6886,
      "ro": 6887,
      "porte": 6888,
      "directement": 6889,
      "rom": 6890,
      "succès": 6891,
      "candid": 6892,
      "début": 6893,
      "fonctionnement": 6894,
      "immédi": 6895,
      "libre": 6896,
      "exclu": 6897,
      "indica": 6898,
      "##él": 6899,
      "mili": 6900,
      "locales": 6901,
      "aliné": 6902,
      "##bilités": 6903,
      "##cef": 6904,
      "pense": 6905,
      "##stra": 6906,
      "chois": 6907,
      "atteindre": 6908,
      "évolution": 6909,
      "chambre": 6910,
      "stock": 6911,
      "matériel": 6912,
      "suit": 6913,
      "intérêts": 6914,
      "portant": 6915,
      "vul": 6916,
      "61": 6917,
      "fronti": 6918,
      "##stroph": 6919,
      "complè": 6920,
      "détention": 6921,
      "aurait": 6922,
      "durée": 6923,
      "maladi": 6924,
      "multilatéra": 6925,
      "interp": 6926,
      "présidence": 6927,
      "étroit": 6928,
      "ouver": 6929,
      "fédéra": 6930,
      "filles": 6931,
      "limité": 6932,
      "##quie": 6933,
      "##sique": 6934,
      "##tait": 6935,
      "##ître": 6936,
      "centrale": 6937,
      "feu": 6938,
      "iraq": 6939,
      "tend": 6940,
      "demander": 6941,
      "difficultés": 6942,
      "financiers": 6943,
      "catastroph": 6944,
      "enten": 6945,
      "interne": 6946,
      "condition": 6947,
      "réguli": 6948,
      "1997": 6949,
      "déploy": 6950,
      "félicite": 6951,
      "quand": 6952,
      "obst": 6953,
      "transports": 6954,
      "##kistan": 6955,
      "wp": 6956,
      "fab": 6957,
      "partenariat": 6958,
      "##cessi": 6959,
      "illic": 6960,
      "##lie": 6961,
      "communautés": 6962,
      "interdi": 6963,
      "responsabil": 6964,
      "bre": 6965,
      "##ros": 6966,
      "mouv": 6967,
      "chez": 6968,
      "pouvez": 6969,
      "peine": 6970,
      "##quée": 6971,
      "détermin": 6972,
      "phy": 6973,
      "caractère": 6974,
      "volont": 6975,
      "##use": 6976,
      "##onde": 6977,
      "minor": 6978,
      "##pl": 6979,
      "importants": 6980,
      "âge": 6981,
      "écrit": 6982,
      "sources": 6983,
      "signal": 6984,
      "##moins": 6985,
      "preuve": 6986,
      "##--": 6987,
      "estim": 6988,
      "del": 6989,
      "espr": 6990,
      "trouve": 6991,
      "major": 6992,
      "encourager": 6993,
      "voul": 6994,
      "coh": 6995,
      "considéra": 6996,
      "distin": 6997,
      "déterminer": 6998,
      "essentiel": 6999,
      "incl": 7000,
      "échange": 7001,
      "poste": 7002,
      "militaires": 7003,
      "donne": 7004,
      "populations": 7005,
      "scienti": 7006,
      "paragraphes": 7007,
      "end": 7008,
      "interg": 7009,
      "afghan": 7010,
      "conséquences": 7011,
      "fl": 7012,
      "terrain": 7013,
      "maxim": 7014,
      "coup": 7015,
      "agents": 7016,
      "##ets": 7017,
      "impact": 7018,
      "concur": 7019,
      "arabe": 7020,
      "crime": 7021,
      "élarg": 7022,
      "conférences": 7023,
      "dix": 7024,
      "comptes": 7025,
      "organe": 7026,
      "estime": 7027,
      "##ouvernement": 7028,
      "suivant": 7029,
      "propres": 7030,
      "décide": 7031,
      "trop": 7032,
      "propose": 7033,
      "york": 7034,
      "importe": 7035,
      "opin": 7036,
      "humains": 7037,
      "prim": 7038,
      "harmon": 7039,
      "##nés": 7040,
      "conserv": 7041,
      "##rage": 7042,
      "pacifique": 7043,
      "satisfaction": 7044,
      "##emn": 7045,
      "contrô": 7046,
      "rendu": 7047,
      "souligné": 7048,
      "liées": 7049,
      "coll": 7050,
      "grands": 7051,
      "coûts": 7052,
      "esprit": 7053,
      "you": 7054,
      "intergouvernement": 7055,
      "##tout": 7056,
      "frais": 7057,
      "agric": 7058,
      "surtout": 7059,
      "sh": 7060,
      "bou": 7061,
      "critères": 7062,
      "##iennent": 7063,
      "combat": 7064,
      "plén": 7065,
      "indemn": 7066,
      "rapidement": 7067,
      "##va": 7068,
      "direct": 7069,
      "financier": 7070,
      "##vres": 7071,
      "##néra": 7072,
      "##blement": 7073,
      "vulnéra": 7074,
      "instrument": 7075,
      "inn": 7076,
      "muni": 7077,
      "##isant": 7078,
      "fondamentaux": 7079,
      "bureaux": 7080,
      "possibilités": 7081,
      "présentation": 7082,
      "mat": 7083,
      "version": 7084,
      "pê": 7085,
      "mor": 7086,
      "##isi": 7087,
      "publiques": 7088,
      "##tir": 7089,
      "##ciale": 7090,
      "soud": 7091,
      "clairement": 7092,
      "##urer": 7093,
      "##vision": 7094,
      "autom": 7095,
      "éviter": 7096,
      "entraî": 7097,
      "unicef": 7098,
      "##rup": 7099,
      "pouvoirs": 7100,
      "régionale": 7101,
      "quelque": 7102,
      "##équ": 7103,
      "mari": 7104,
      "facul": 7105,
      "clients": 7106,
      "israéli": 7107,
      "petit": 7108,
      "obstac": 7109,
      "##nd": 7110,
      "##cr": 7111,
      "trafic": 7112,
      "##uellement": 7113,
      "biennal": 7114,
      "transition": 7115,
      "##ésion": 7116,
      "##onté": 7117,
      "##isc": 7118,
      "outil": 7119,
      "ht": 7120,
      "saint": 7121,
      "directive": 7122,
      "priorité": 7123,
      "##ché": 7124,
      "humaines": 7125,
      "terres": 7126,
      "##ase": 7127,
      "véhicules": 7128,
      "volonté": 7129,
      "périodi": 7130,
      "##ématique": 7131,
      "évid": 7132,
      "vingt": 7133,
      "respecter": 7134,
      "##land": 7135,
      ".,": 7136,
      "suivre": 7137,
      "seul": 7138,
      "45": 7139,
      "##magne": 7140,
      "discus": 7141,
      "lesquelles": 7142,
      "envoy": 7143,
      "inde": 7144,
      "matières": 7145,
      "##titude": 7146,
      "acquit": 7147,
      "allemagne": 7148,
      "prévenir": 7149,
      "communications": 7150,
      "carac": 7151,
      "##pens": 7152,
      "##ran": 7153,
      "pens": 7154,
      "##acer": 7155,
      "quo": 7156,
      "ong": 7157,
      "locaux": 7158,
      "62": 7159,
      "élément": 7160,
      "source": 7161,
      "suivantes": 7162,
      "palestinien": 7163,
      "amp": 7164,
      "modern": 7165,
      "perspec": 7166,
      "intitulé": 7167,
      "##uration": 7168,
      "échelle": 7169,
      "procès": 7170,
      "confir": 7171,
      "soixante": 7172,
      "exécutif": 7173,
      "resta": 7174,
      "##bi": 7175,
      "invite": 7176,
      "##cident": 7177,
      "##tences": 7178,
      "marchand": 7179,
      "militaire": 7180,
      "emb": 7181,
      "élections": 7182,
      "pertinentes": 7183,
      "compétent": 7184,
      "compétences": 7185,
      "auteurs": 7186,
      "##cel": 7187,
      "--": 7188,
      "solutions": 7189,
      "violation": 7190,
      "caracté": 7191,
      "##ma": 7192,
      "raisons": 7193,
      "extr": 7194,
      "##erait": 7195,
      "##air": 7196,
      "##rè": 7197,
      "émissions": 7198,
      "ache": 7199,
      "tch": 7200,
      "importantes": 7201,
      "pénal": 7202,
      "faites": 7203,
      "visite": 7204,
      "sûre": 7205,
      "attent": 7206,
      "amendements": 7207,
      "priorités": 7208,
      "##cont": 7209,
      "congo": 7210,
      "institut": 7211,
      "##anda": 7212,
      "réserv": 7213,
      "institutionn": 7214,
      "page": 7215,
      "parole": 7216,
      "prévoit": 7217,
      "##dio": 7218,
      "acte": 7219,
      "choix": 7220,
      "rapide": 7221,
      "export": 7222,
      "ouverture": 7223,
      "prévu": 7224,
      "appuyer": 7225,
      "stabilité": 7226,
      "pron": 7227,
      "1996": 7228,
      "##ju": 7229,
      "graves": 7230,
      "sociétés": 7231,
      "autonom": 7232,
      "spécifiques": 7233,
      "vente": 7234,
      "##aisse": 7235,
      "territoires": 7236,
      "esc": 7237,
      "cub": 7238,
      "dû": 7239,
      "austra": 7240,
      "manque": 7241,
      "vac": 7242,
      "pat": 7243,
      "##tification": 7244,
      "tribunaux": 7245,
      "arb": 7246,
      "médic": 7247,
      "sixième": 7248,
      "déclaré": 7249,
      "dos": 7250,
      "##tivité": 7251,
      "textes": 7252,
      "travers": 7253,
      "tota": 7254,
      "##ulg": 7255,
      "##ards": 7256,
      "lesquels": 7257,
      "parents": 7258,
      "rappelant": 7259,
      "cee": 7260,
      "familles": 7261,
      "stratégique": 7262,
      "accroître": 7263,
      "alinéa": 7264,
      "améric": 7265,
      "présidente": 7266,
      "indicateurs": 7267,
      "affaire": 7268,
      "africaine": 7269,
      "liés": 7270,
      "##arité": 7271,
      "adoptées": 7272,
      "nucléaire": 7273,
      "responsabilités": 7274,
      "35": 7275,
      "étrangères": 7276,
      "ensu": 7277,
      "construction": 7278,
      "complément": 7279,
      "soudan": 7280,
      "chacun": 7281,
      "démar": 7282,
      "désign": 7283,
      "électronique": 7284,
      "##dite": 7285,
      "##rants": 7286,
      "produc": 7287,
      "air": 7288,
      "provin": 7289,
      "##qui": 7290,
      "##isée": 7291,
      "##ka": 7292,
      "transfert": 7293,
      "consul": 7294,
      "heure": 7295,
      "96": 7296,
      "puisse": 7297,
      "situations": 7298,
      "extraord": 7299,
      "1995": 7300,
      "recommandé": 7301,
      "industrie": 7302,
      "##mage": 7303,
      "##ature": 7304,
      "reçu": 7305,
      "inscrit": 7306,
      "réparti": 7307,
      "islam": 7308,
      "##ya": 7309,
      "pan": 7310,
      "##sse": 7311,
      "bur": 7312,
      "##lif": 7313,
      "etc": 7314,
      "réce": 7315,
      "récemment": 7316,
      "ethn": 7317,
      "présence": 7318,
      "##……": 7319,
      "##vés": 7320,
      "donateurs": 7321,
      "évaluer": 7322,
      "63": 7323,
      "extérie": 7324,
      "cop": 7325,
      "##venant": 7326,
      "définition": 7327,
      "##undi": 7328,
      "arrê": 7329,
      "lutter": 7330,
      "accus": 7331,
      "autant": 7332,
      "responsable": 7333,
      "ul": 7334,
      "quar": 7335,
      "catégorie": 7336,
      "phot": 7337,
      "déch": 7338,
      "permanente": 7339,
      "hotel": 7340,
      "administratives": 7341,
      "##èque": 7342,
      "##nement": 7343,
      "32": 7344,
      "seraient": 7345,
      "ax": 7346,
      "appor": 7347,
      "armés": 7348,
      "pal": 7349,
      "second": 7350,
      "gre": 7351,
      "liban": 7352,
      "adressée": 7353,
      "compar": 7354,
      "traditionn": 7355,
      "souligne": 7356,
      "##dits": 7357,
      "33": 7358,
      "jamais": 7359,
      "efficaces": 7360,
      "changement": 7361,
      "valeurs": 7362,
      "##tim": 7363,
      "parvenir": 7364,
      "méd": 7365,
      "chefs": 7366,
      "conventions": 7367,
      "##ed": 7368,
      "el": 7369,
      "##tenti": 7370,
      "seule": 7371,
      "réaliser": 7372,
      "##ariats": 7373,
      "tiers": 7374,
      "porter": 7375,
      "conseils": 7376,
      "rencont": 7377,
      "conséquent": 7378,
      "appré": 7379,
      "concrè": 7380,
      "juste": 7381,
      "##isés": 7382,
      "jouer": 7383,
      "extrême": 7384,
      "vu": 7385,
      "##yn": 7386,
      "datée": 7387,
      "##ok": 7388,
      "##tén": 7389,
      "indis": 7390,
      "##inée": 7391,
      "éliminer": 7392,
      "plaint": 7393,
      "##ément": 7394,
      "ensuite": 7395,
      "accent": 7396,
      "##ologiques": 7397,
      "quelle": 7398,
      "nav": 7399,
      "##zième": 7400,
      "##oph": 7401,
      "tim": 7402,
      "organisé": 7403,
      "mex": 7404,
      "démocratie": 7405,
      "##iendra": 7406,
      "liens": 7407,
      "principales": 7408,
      "évén": 7409,
      "passé": 7410,
      "thème": 7411,
      "prolif": 7412,
      "adresse": 7413,
      "technologie": 7414,
      "agriculture": 7415,
      "##leur": 7416,
      "poss": 7417,
      "suisse": 7418,
      "constat": 7419,
      "rac": 7420,
      "consens": 7421,
      "difficile": 7422,
      "coût": 7423,
      "approuvé": 7424,
      "##èces": 7425,
      "majorité": 7426,
      "marchandises": 7427,
      "anti": 7428,
      "bâ": 7429,
      "pros": 7430,
      "mener": 7431,
      "chiff": 7432,
      "36": 7433,
      "conne": 7434,
      "##isées": 7435,
      "vrai": 7436,
      "urb": 7437,
      "asi": 7438,
      "propriété": 7439,
      "menées": 7440,
      "intermédi": 7441,
      "##acement": 7442,
      "prolifération": 7443,
      "##ann": 7444,
      "bu": 7445,
      "voyage": 7446,
      "humanitaires": 7447,
      "196": 7448,
      "spati": 7449,
      "##ruption": 7450,
      "##auv": 7451,
      "##miques": 7452,
      "faculta": 7453,
      "souff": 7454,
      "spéciales": 7455,
      "concent": 7456,
      "fort": 7457,
      "préf": 7458,
      "organisée": 7459,
      "mag": 7460,
      "##térieur": 7461,
      "noté": 7462,
      "dirige": 7463,
      "confiance": 7464,
      "##mant": 7465,
      "compr": 7466,
      "étrangers": 7467,
      "expos": 7468,
      "illég": 7469,
      "véhicule": 7470,
      "ident": 7471,
      "essai": 7472,
      "meilleure": 7473,
      "##ertés": 7474,
      "slo": 7475,
      "canadi": 7476,
      "séances": 7477,
      "class": 7478,
      "médias": 7479,
      "développer": 7480,
      "contient": 7481,
      "##fiée": 7482,
      "écoles": 7483,
      "##èce": 7484,
      "principal": 7485,
      "entrep": 7486,
      "vill": 7487,
      "inspec": 7488,
      "##rez": 7489,
      "manifes": 7490,
      "séle": 7491,
      "entière": 7492,
      "privée": 7493,
      "##ina": 7494,
      "élevé": 7495,
      "collèg": 7496,
      "##itant": 7497,
      "insta": 7498,
      "délai": 7499,
      "traitements": 7500,
      "circul": 7501,
      "##gos": 7502,
      "interdiction": 7503,
      "arbit": 7504,
      "figure": 7505,
      "dimin": 7506,
      "publication": 7507,
      "indispens": 7508,
      "modifier": 7509,
      "##rendre": 7510,
      "alimentaire": 7511,
      "souhaite": 7512,
      "sanctions": 7513,
      "investissement": 7514,
      "raciale": 7515,
      "##gées": 7516,
      "##ah": 7517,
      "français": 7518,
      "dest": 7519,
      "irlande": 7520,
      "européens": 7521,
      "amendement": 7522,
      "conç": 7523,
      "##rop": 7524,
      "faite": 7525,
      "situé": 7526,
      "concurrence": 7527,
      "##onnes": 7528,
      "##arence": 7529,
      "##aison": 7530,
      "er": 7531,
      "##ton": 7532,
      "parc": 7533,
      "consensus": 7534,
      "##ètres": 7535,
      "constituent": 7536,
      "##ates": 7537,
      "sor": 7538,
      "ps": 7539,
      "##criptions": 7540,
      "figurant": 7541,
      "potenti": 7542,
      "##minaire": 7543,
      "her": 7544,
      "serv": 7545,
      "structure": 7546,
      "informe": 7547,
      "##cipé": 7548,
      "dipl": 7549,
      "gratu": 7550,
      "##lex": 7551,
      "crimes": 7552,
      "commissariat": 7553,
      "mess": 7554,
      "soutenir": 7555,
      "favoriser": 7556,
      "participé": 7557,
      "bru": 7558,
      "sites": 7559,
      "consolidation": 7560,
      "caractéris": 7561,
      "signé": 7562,
      "vice": 7563,
      "34": 7564,
      "extraordinaire": 7565,
      "invité": 7566,
      "quali": 7567,
      "mac": 7568,
      "terre": 7569,
      "élè": 7570,
      "publié": 7571,
      "connaissances": 7572,
      "culturels": 7573,
      "local": 7574,
      "pollu": 7575,
      "attend": 7576,
      "conséquence": 7577,
      "37": 7578,
      "contenu": 7579,
      "final": 7580,
      "investissements": 7581,
      "tri": 7582,
      "gouvernance": 7583,
      "débats": 7584,
      "petits": 7585,
      "afghanistan": 7586,
      "plut": 7587,
      "pêche": 7588,
      "##biliser": 7589,
      "##érés": 7590,
      "analys": 7591,
      "kos": 7592,
      "##ry": 7593,
      "types": 7594,
      "puissent": 7595,
      "54": 7596,
      "particulière": 7597,
      "drogues": 7598,
      "plac": 7599,
      "##urant": 7600,
      "##orm": 7601,
      "pie": 7602,
      "réalisés": 7603,
      "tent": 7604,
      "agence": 7605,
      "##der": 7606,
      "instamment": 7607,
      "diffusion": 7608,
      "phase": 7609,
      "remar": 7610,
      "semble": 7611,
      "prévues": 7612,
      "##énie": 7613,
      "##éria": 7614,
      "inqui": 7615,
      "naturelles": 7616,
      "supéri": 7617,
      "tard": 7618,
      "sépar": 7619,
      "él": 7620,
      "appréci": 7621,
      "instance": 7622,
      "##cée": 7623,
      "renv": 7624,
      "##pées": 7625,
      "contact": 7626,
      "déplac": 7627,
      "bal": 7628,
      "##ze": 7629,
      "malgré": 7630,
      "rien": 7631,
      "vise": 7632,
      "classi": 7633,
      "contraire": 7634,
      "##èrent": 7635,
      "expression": 7636,
      "mineurs": 7637,
      "sim": 7638,
      "48": 7639,
      "##cepti": 7640,
      "journal": 7641,
      "libertés": 7642,
      "septième": 7643,
      "appare": 7644,
      "dan": 7645,
      "travailler": 7646,
      "ta": 7647,
      "ministres": 7648,
      "##cili": 7649,
      "concl": 7650,
      "répond": 7651,
      "accomplis": 7652,
      "corre": 7653,
      "##opie": 7654,
      "réus": 7655,
      "kosov": 7656,
      "mises": 7657,
      "red": 7658,
      "équili": 7659,
      "pouvons": 7660,
      "##fiés": 7661,
      "commis": 7662,
      "fourni": 7663,
      "##anges": 7664,
      "subs": 7665,
      "réclam": 7666,
      "plutôt": 7667,
      "comprend": 7668,
      "attribu": 7669,
      "##formes": 7670,
      "langue": 7671,
      "##dicap": 7672,
      "utile": 7673,
      "handicap": 7674,
      "sensibilisation": 7675,
      "##dica": 7676,
      "immig": 7677,
      "recon": 7678,
      "modèle": 7679,
      "transparence": 7680,
      "encourag": 7681,
      "iran": 7682,
      "##ral": 7683,
      "langues": 7684,
      "opinion": 7685,
      "##ologie": 7686,
      "brés": 7687,
      "histor": 7688,
      "voix": 7689,
      "milieu": 7690,
      "refus": 7691,
      "deven": 7692,
      "indépendance": 7693,
      "##ades": 7694,
      "espé": 7695,
      "enquêtes": 7696,
      "##chi": 7697,
      "défis": 7698,
      "budgétaires": 7699,
      "devait": 7700,
      "ajouter": 7701,
      "merc": 7702,
      "permett": 7703,
      "##nu": 7704,
      "facteurs": 7705,
      "circon": 7706,
      "nig": 7707,
      "compétence": 7708,
      "italie": 7709,
      "requérant": 7710,
      "mada": 7711,
      "##tations": 7712,
      "##sez": 7713,
      "préserv": 7714,
      "minorités": 7715,
      "supérieur": 7716,
      "ambass": 7717,
      "pauvres": 7718,
      "entend": 7719,
      "apparten": 7720,
      "##atoires": 7721,
      "espère": 7722,
      "évalu": 7723,
      "turquie": 7724,
      "menace": 7725,
      "sessions": 7726,
      "sexe": 7727,
      "##mar": 7728,
      "##gosla": 7729,
      "dossi": 7730,
      "yougosla": 7731,
      "origin": 7732,
      "terroristes": 7733,
      "montré": 7734,
      "avantages": 7735,
      "madame": 7736,
      "convain": 7737,
      "criminalité": 7738,
      "utilisés": 7739,
      "déployés": 7740,
      "installations": 7741,
      "issue": 7742,
      "##esse": 7743,
      "représente": 7744,
      "chargée": 7745,
      "ordin": 7746,
      "envisager": 7747,
      "intermédiaire": 7748,
      "connaître": 7749,
      "fré": 7750,
      "suscepti": 7751,
      "##ète": 7752,
      "##gique": 7753,
      "procure": 7754,
      "sug": 7755,
      "éché": 7756,
      "mic": 7757,
      "##isent": 7758,
      "##lée": 7759,
      "acteurs": 7760,
      "fournisse": 7761,
      "##tez": 7762,
      "uk": 7763,
      "étranger": 7764,
      "numéro": 7765,
      "découv": 7766,
      "##érie": 7767,
      "générales": 7768,
      "téléph": 7769,
      "\".": 7770,
      "décen": 7771,
      "empêcher": 7772,
      "##formé": 7773,
      "kosovo": 7774,
      "crédit": 7775,
      "enfance": 7776,
      "passer": 7777,
      "faible": 7778,
      "procéder": 7779,
      "retour": 7780,
      "##ced": 7781,
      "42": 7782,
      "contract": 7783,
      "consultation": 7784,
      "entités": 7785,
      "décou": 7786,
      "anim": 7787,
      "fabri": 7788,
      "préoccupation": 7789,
      "commerciales": 7790,
      "contrat": 7791,
      "globale": 7792,
      "adhésion": 7793,
      "allég": 7794,
      "fondée": 7795,
      "main": 7796,
      "hé": 7797,
      "préal": 7798,
      "comprendre": 7799,
      "répar": 7800,
      "##cs": 7801,
      "méthode": 7802,
      "école": 7803,
      "concernés": 7804,
      "garanties": 7805,
      "##nant": 7806,
      "##tements": 7807,
      "multip": 7808,
      "partenariats": 7809,
      "semaine": 7810,
      "aient": 7811,
      "uniquement": 7812,
      "logement": 7813,
      "aéri": 7814,
      "juge": 7815,
      "enregistre": 7816,
      "usage": 7817,
      "##éc": 7818,
      "diversité": 7819,
      "##ana": 7820,
      "##erte": 7821,
      "fre": 7822,
      "39": 7823,
      "existence": 7824,
      "approf": 7825,
      "forêts": 7826,
      "sexuelle": 7827,
      "mot": 7828,
      "38": 7829,
      "siè": 7830,
      "##olér": 7831,
      "inscri": 7832,
      "##osph": 7833,
      "huitième": 7834,
      "47": 7835,
      "corée": 7836,
      "dépend": 7837,
      "##ji": 7838,
      "portée": 7839,
      "traiter": 7840,
      "adéqu": 7841,
      "partage": 7842,
      "destruction": 7843,
      "insu": 7844,
      "##isions": 7845,
      "##__": 7846,
      "modalités": 7847,
      "##vième": 7848,
      "##titution": 7849,
      "minutes": 7850,
      "termin": 7851,
      "mouvement": 7852,
      "##ote": 7853,
      "dépos": 7854,
      "route": 7855,
      "vois": 7856,
      "faudrait": 7857,
      "bos": 7858,
      "corruption": 7859,
      "##fait": 7860,
      "espagne": 7861,
      "recueil": 7862,
      "disponible": 7863,
      "neuvième": 7864,
      "généralement": 7865,
      "sélection": 7866,
      "90": 7867,
      "1994": 7868,
      "facultatif": 7869,
      "prenant": 7870,
      "##rité": 7871,
      "##oth": 7872,
      "##erra": 7873,
      "entendu": 7874,
      "timor": 7875,
      "utilisé": 7876,
      "renouv": 7877,
      "généraux": 7878,
      "mus": 7879,
      "41": 7880,
      "##sé": 7881,
      "accorder": 7882,
      "fich": 7883,
      "passe": 7884,
      "actuel": 7885,
      "venir": 7886,
      "commissions": 7887,
      "bilatéra": 7888,
      "cuba": 7889,
      "effor": 7890,
      "##ha": 7891,
      "global": 7892,
      "intérim": 7893,
      "ordinaire": 7894,
      "##).": 7895,
      "##sta": 7896,
      "##ind": 7897,
      "palestiniens": 7898,
      "stu": 7899,
      "##tables": 7900,
      "assurance": 7901,
      "présentés": 7902,
      "offrir": 7903,
      "diffus": 7904,
      "ib": 7905,
      "sûreté": 7906,
      "unité": 7907,
      "cnu": 7908,
      "##ressi": 7909,
      "dessous": 7910,
      "connaissance": 7911,
      "reprodu": 7912,
      "mexique": 7913,
      "maison": 7914,
      "conform": 7915,
      "concep": 7916,
      "suppri": 7917,
      "51": 7918,
      "chau": 7919,
      "dégra": 7920,
      "cnuced": 7921,
      "idée": 7922,
      "##illez": 7923,
      "indépendant": 7924,
      "migrants": 7925,
      "modifications": 7926,
      "catastrophes": 7927,
      "maintenir": 7928,
      "rig": 7929,
      "pourra": 7930,
      "az": 7931,
      "considérée": 7932,
      "préoccupations": 7933,
      "mauv": 7934,
      "officieuses": 7935,
      "frontières": 7936,
      "réglementation": 7937,
      "44": 7938,
      "préparation": 7939,
      "##péra": 7940,
      "solid": 7941,
      "##çant": 7942,
      "meilleur": 7943,
      "##bation": 7944,
      "infractions": 7945,
      "presse": 7946,
      "applicables": 7947,
      "paris": 7948,
      "populaire": 7949,
      "idé": 7950,
      "##por": 7951,
      "obstacles": 7952,
      "comprom": 7953,
      "catégories": 7954,
      "complète": 7955,
      "ukra": 7956,
      "climatiques": 7957,
      "engage": 7958,
      "derniers": 7959,
      "affectation": 7960,
      "auxquels": 7961,
      "plénière": 7962,
      "##itent": 7963,
      "ambassade": 7964,
      "téléc": 7965,
      "##anmoins": 7966,
      "revenu": 7967,
      "néanmoins": 7968,
      "##ographique": 7969,
      "##bour": 7970,
      "exige": 7971,
      "##idé": 7972,
      "norv": 7973,
      "résultat": 7974,
      "chimiques": 7975,
      "pakistan": 7976,
      "emplois": 7977,
      "logici": 7978,
      "cycle": 7979,
      "##périe": 7980,
      "##ala": 7981,
      "classe": 7982,
      "composition": 7983,
      "conduite": 7984,
      "constitutionn": 7985,
      "tenant": 7986,
      "légiti": 7987,
      "donnée": 7988,
      "homolog": 7989,
      "physique": 7990,
      "alb": 7991,
      "histoire": 7992,
      "##istéri": 7993,
      "adoles": 7994,
      "adjoint": 7995,
      "biais": 7996,
      "arabes": 7997,
      "53": 7998,
      "réseaux": 7999,
      "radio": 8000,
      "caraï": 8001,
      "échanges": 8002,
      "##oncer": 8003,
      "lign": 8004,
      "psy": 8005,
      "veuillez": 8006,
      "ouest": 8007,
      "illicite": 8008,
      "recevoir": 8009,
      "définir": 8010,
      "49": 8011,
      "excel": 8012,
      "incidences": 8013,
      "excep": 8014,
      "haute": 8015,
      "##atement": 8016,
      "permettent": 8017,
      "remercier": 8018,
      "consommation": 8019,
      "supérie": 8020,
      "lic": 8021,
      "##gés": 8022,
      "islamique": 8023,
      "insuffis": 8024,
      "sch": 8025,
      "80": 8026,
      "navig": 8027,
      "prescriptions": 8028,
      "##val": 8029,
      "dén": 8030,
      "considération": 8031,
      "##ontre": 8032,
      "exercer": 8033,
      "prochaine": 8034,
      "command": 8035,
      "périodique": 8036,
      "infl": 8037,
      "champ": 8038,
      "informé": 8039,
      "##tp": 8040,
      "spécifique": 8041,
      "##mière": 8042,
      "52": 8043,
      "considère": 8044,
      "##tendre": 8045,
      "gui": 8046,
      "circonstances": 8047,
      "intensi": 8048,
      "occident": 8049,
      "tient": 8050,
      "##olérance": 8051,
      "##cées": 8052,
      "##ormais": 8053,
      "infraction": 8054,
      "désormais": 8055,
      "##ondi": 8056,
      "observation": 8057,
      "cat": 8058,
      "##onses": 8059,
      "fondamentales": 8060,
      "corps": 8061,
      "exigences": 8062,
      "acquitter": 8063,
      "côté": 8064,
      "réponses": 8065,
      "indique": 8066,
      "vulnérables": 8067,
      "innov": 8068,
      "caraïbes": 8069,
      "principalement": 8070,
      "sûr": 8071,
      "campagne": 8072,
      "vues": 8073,
      "##gi": 8074,
      "##nation": 8075,
      "règlements": 8076,
      "construc": 8077,
      "annuel": 8078,
      "dim": 8079,
      "##ynam": 8080,
      "carte": 8081,
      "honn": 8082,
      "abou": 8083,
      "alimentation": 8084,
      "brésil": 8085,
      "organiser": 8086,
      "souligner": 8087,
      "prochain": 8088,
      "avancés": 8089,
      "université": 8090,
      "##owe": 8091,
      "##ciers": 8092,
      "##èvement": 8093,
      "##iles": 8094,
      "appareil": 8095,
      "approfondi": 8096,
      "##dice": 8097,
      "212": 8098,
      "atelier": 8099,
      "vit": 8100,
      "heur": 8101,
      "sierra": 8102,
      "étudier": 8103,
      "##ira": 8104,
      "vienne": 8105,
      "communiquer": 8106,
      "exposé": 8107,
      "doute": 8108,
      "hong": 8109,
      "pied": 8110,
      "indiquer": 8111,
      "accessi": 8112,
      "inclu": 8113,
      "interprét": 8114,
      "révision": 8115,
      "46": 8116,
      "43": 8117,
      "mut": 8118,
      "distribution": 8119,
      "##ué": 8120,
      "arch": 8121,
      "lancé": 8122,
      "immédiatement": 8123,
      "minimum": 8124,
      "tempor": 8125,
      "atm": 8126,
      "accue": 8127,
      "autri": 8128,
      "dérou": 8129,
      "destinés": 8130,
      "\",": 8131,
      "##emment": 8132,
      "##oudre": 8133,
      "##ki": 8134,
      "##unis": 8135,
      "bénéficier": 8136,
      "dette": 8137,
      "pen": 8138,
      "ordonn": 8139,
      "dirigeants": 8140,
      "limite": 8141,
      "particuliers": 8142,
      "ouverte": 8143,
      "largement": 8144,
      "îles": 8145,
      "500": 8146,
      "côte": 8147,
      "##pir": 8148,
      "chose": 8149,
      "simple": 8150,
      "volontaires": 8151,
      "64": 8152,
      "commentaires": 8153,
      "parta": 8154,
      "atmosph": 8155,
      "écou": 8156,
      "my": 8157,
      "juges": 8158,
      "fisc": 8159,
      "post": 8160,
      "collecte": 8161,
      "lignes": 8162,
      "suivante": 8163,
      "appelle": 8164,
      "guinée": 8165,
      "australie": 8166,
      "central": 8167,
      "lumière": 8168,
      "gam": 8169,
      "candidats": 8170,
      "##onés": 8171,
      "servir": 8172,
      "gard": 8173,
      "##riques": 8174,
      "##ke": 8175,
      "##éder": 8176,
      "vérification": 8177,
      "##esti": 8178,
      "##ane": 8179,
      "77": 8180,
      "##lées": 8181,
      "siècle": 8182,
      "##ast": 8183,
      "tâches": 8184,
      "##ly": 8185,
      "délais": 8186,
      "indonés": 8187,
      "70": 8188,
      "répartition": 8189,
      "journée": 8190,
      "lux": 8191,
      "relevant": 8192,
      "estimé": 8193,
      "##déré": 8194,
      "approbation": 8195,
      "##tagne": 8196,
      "##unité": 8197,
      "subsi": 8198,
      "agré": 8199,
      "adolesc": 8200,
      "##chement": 8201,
      "##aliser": 8202,
      "aé": 8203,
      "cad": 8204,
      "##cés": 8205,
      "rw": 8206,
      "communautaire": 8207,
      "##mation": 8208,
      "affi": 8209,
      "documentation": 8210,
      "garde": 8211,
      "énergé": 8212,
      "maladies": 8213,
      "séjour": 8214,
      "cec": 8215,
      "kowe": 8216,
      "préju": 8217,
      "auquel": 8218,
      "##iner": 8219,
      "accél": 8220,
      "circulation": 8221,
      "reconnaissance": 8222,
      "reti": 8223,
      "officiels": 8224,
      "##érations": 8225,
      "essentiellement": 8226,
      "dispositif": 8227,
      "koweï": 8228,
      "souver": 8229,
      "rurales": 8230,
      "voit": 8231,
      "signature": 8232,
      "statistique": 8233,
      "différen": 8234,
      "égyp": 8235,
      "modification": 8236,
      "prié": 8237,
      "dynam": 8238,
      "laiss": 8239,
      "événements": 8240,
      "exclusi": 8241,
      "naiss": 8242,
      "##ser": 8243,
      "##vez": 8244,
      "activement": 8245,
      "##ciliation": 8246,
      "intégrer": 8247,
      "crois": 8248,
      "##ister": 8249,
      "dar": 8250,
      "##bili": 8251,
      "cé": 8252,
      "quarante": 8253,
      "mém": 8254,
      "indispensable": 8255,
      "équitable": 8256,
      "efficacement": 8257,
      "évo": 8258,
      "systématique": 8259,
      "garantie": 8260,
      "actu": 8261,
      "transit": 8262,
      "lieux": 8263,
      "déploi": 8264,
      "réformes": 8265,
      "recettes": 8266,
      "compter": 8267,
      "subsidi": 8268,
      "vendre": 8269,
      "nationalité": 8270,
      "##sible": 8271,
      "verb": 8272,
      "matern": 8273,
      "ministéri": 8274,
      "1990": 8275,
      "mariti": 8276,
      "conclusion": 8277,
      "75": 8278,
      "outils": 8279,
      "ration": 8280,
      "super": 8281,
      "simplement": 8282,
      "écl": 8283,
      "##ortement": 8284,
      "##we": 8285,
      "##èlement": 8286,
      "spéciaux": 8287,
      "détenus": 8288,
      "##èles": 8289,
      "agir": 8290,
      "provenant": 8291,
      "applique": 8292,
      "substances": 8293,
      "massi": 8294,
      "##oses": 8295,
      "##once": 8296,
      "crédits": 8297,
      "structur": 8298,
      "bosnie": 8299,
      "soum": 8300,
      "intitulée": 8301,
      "reconnu": 8302,
      "racisme": 8303,
      "règle": 8304,
      "intégrée": 8305,
      "diver": 8306,
      "mode": 8307,
      "1993": 8308,
      "##tori": 8309,
      "mines": 8310,
      "rester": 8311,
      "pression": 8312,
      "observer": 8313,
      "##ity": 8314,
      "inh": 8315,
      "euros": 8316,
      "mondialisation": 8317,
      "permettra": 8318,
      "##org": 8319,
      "espagn": 8320,
      "##ht": 8321,
      "municip": 8322,
      "exh": 8323,
      "syn": 8324,
      "##atie": 8325,
      "structures": 8326,
      "professionnelle": 8327,
      "restric": 8328,
      "##umé": 8329,
      "##tr": 8330,
      "internes": 8331,
      "diplom": 8332,
      "suède": 8333,
      "##gra": 8334,
      "conception": 8335,
      "petites": 8336,
      "continuent": 8337,
      "chem": 8338,
      "certi": 8339,
      "##ck": 8340,
      "départ": 8341,
      "occupation": 8342,
      "##andis": 8343,
      "humaine": 8344,
      "complet": 8345,
      "interventions": 8346,
      "##rais": 8347,
      "pil": 8348,
      "poursuite": 8349,
      "limites": 8350,
      "cale": 8351,
      "portug": 8352,
      "recens": 8353,
      "décrit": 8354,
      "zé": 8355,
      "envisag": 8356,
      "ceci": 8357,
      "encontre": 8358,
      "considéré": 8359,
      "auront": 8360,
      "contac": 8361,
      "##lin": 8362,
      "appuy": 8363,
      "##vers": 8364,
      "##pi": 8365,
      "cru": 8366,
      "commencer": 8367,
      "enregistrement": 8368,
      "réserves": 8369,
      "##çons": 8370,
      "##ovine": 8371,
      "hcr": 8372,
      "##étaire": 8373,
      "psych": 8374,
      "convenu": 8375,
      "sembl": 8376,
      "longue": 8377,
      "caractéristiques": 8378,
      "bat": 8379,
      "963": 8380,
      "demeure": 8381,
      "suffisamment": 8382,
      "##je": 8383,
      "prob": 8384,
      "aller": 8385,
      "incor": 8386,
      "régulièrement": 8387,
      "armée": 8388,
      "formulées": 8389,
      "consent": 8390,
      "décid": 8391,
      "spécialisées": 8392,
      "dépass": 8393,
      "carb": 8394,
      "voulu": 8395,
      "thé": 8396,
      "soumettre": 8397,
      "##len": 8398,
      "guide": 8399,
      "tirer": 8400,
      "##roi": 8401,
      "abus": 8402,
      "mots": 8403,
      "norvège": 8404,
      "##lor": 8405,
      "nouvel": 8406,
      "paiement": 8407,
      "lien": 8408,
      "##ii": 8409,
      "résoudre": 8410,
      "##nées": 8411,
      "##lés": 8412,
      "xx": 8413,
      "chargés": 8414,
      "compéti": 8415,
      "exprim": 8416,
      "infrastructures": 8417,
      "figurent": 8418,
      "délib": 8419,
      "élector": 8420,
      "soup": 8421,
      "maroc": 8422,
      "loin": 8423,
      "retard": 8424,
      "villes": 8425,
      "clair": 8426,
      "arrang": 8427,
      "##tic": 8428,
      "sin": 8429,
      "collègues": 8430,
      "engager": 8431,
      "##énom": 8432,
      "trente": 8433,
      "associations": 8434,
      "appropriées": 8435,
      "ratification": 8436,
      "##istant": 8437,
      "pertinents": 8438,
      "ukraine": 8439,
      "forte": 8440,
      "hos": 8441,
      "tâche": 8442,
      "pouvait": 8443,
      "combattre": 8444,
      "asile": 8445,
      "consommateurs": 8446,
      "montre": 8447,
      "rappelle": 8448,
      "déchets": 8449,
      "delà": 8450,
      "transform": 8451,
      "##rement": 8452,
      "entier": 8453,
      "propor": 8454,
      "herz": 8455,
      "maximum": 8456,
      "fourniture": 8457,
      "allant": 8458,
      "##ia": 8459,
      "pleine": 8460,
      "procureur": 8461,
      "grave": 8462,
      "africains": 8463,
      "##ob": 8464,
      "extrêmement": 8465,
      "##amb": 8466,
      "identité": 8467,
      "calend": 8468,
      "reconst": 8469,
      "alli": 8470,
      "effectivement": 8471,
      "pap": 8472,
      "humain": 8473,
      "interprétation": 8474,
      "joue": 8475,
      "latine": 8476,
      "préoccupé": 8477,
      "parall": 8478,
      "financer": 8479,
      "fu": 8480,
      "dispar": 8481,
      "##gu": 8482,
      "sept": 8483,
      "bâti": 8484,
      "##vées": 8485,
      "client": 8486,
      "##ifie": 8487,
      "bé": 8488,
      "complé": 8489,
      "##égovine": 8490,
      "##étro": 8491,
      "alg": 8492,
      "herzégovine": 8493,
      "orientation": 8494,
      "utilisateurs": 8495,
      "concours": 8496,
      "parfois": 8497,
      "religion": 8498,
      "progressi": 8499,
      "concernées": 8500,
      "concrètes": 8501,
      "déplacées": 8502,
      "exprimer": 8503,
      "infrastructure": 8504,
      "##minaires": 8505,
      "commercial": 8506,
      "tiendra": 8507,
      "##économ": 8508,
      "##jan": 8509,
      "informer": 8510,
      "réalité": 8511,
      "élèves": 8512,
      "court": 8513,
      "limitée": 8514,
      "élection": 8515,
      "##oncé": 8516,
      "tandis": 8517,
      "http": 8518,
      "calcul": 8519,
      "sauf": 8520,
      "auraient": 8521,
      "conseiller": 8522,
      "##endre": 8523,
      "bang": 8524,
      "1991": 8525,
      "##arie": 8526,
      "privées": 8527,
      "privil": 8528,
      "sort": 8529,
      "scientifique": 8530,
      "effective": 8531,
      "##bourg": 8532,
      "##ld": 8533,
      "##utés": 8534,
      "choses": 8535,
      "familiale": 8536,
      "##énag": 8537,
      "moyenne": 8538,
      "consiste": 8539,
      "développés": 8540,
      "##pit": 8541,
      "hors": 8542,
      "honneur": 8543,
      "directri": 8544,
      "prévue": 8545,
      "1992": 8546,
      "##),": 8547,
      "écar": 8548,
      "supplémentaire": 8549,
      "échéant": 8550,
      "vidé": 8551,
      "quelles": 8552,
      "##ith": 8553,
      "##ica": 8554,
      "##tidi": 8555,
      "##moi": 8556,
      "additionn": 8557,
      "lance": 8558,
      "volu": 8559,
      "utilisées": 8560,
      "véritable": 8561,
      "mettant": 8562,
      "compétentes": 8563,
      "##manie": 8564,
      "pouvant": 8565,
      "##aste": 8566,
      "renouvel": 8567,
      "progress": 8568,
      "active": 8569,
      "professionnels": 8570,
      "comporte": 8571,
      "peines": 8572,
      "quoi": 8573,
      "inscription": 8574,
      "régler": 8575,
      "cle": 8576,
      "##fiées": 8577,
      "secours": 8578,
      "présentées": 8579,
      "inféri": 8580,
      "menée": 8581,
      ":/": 8582,
      "ressor": 8583,
      "phénom": 8584,
      "agent": 8585,
      "leone": 8586,
      "##vabilité": 8587,
      "précisé": 8588,
      "devra": 8589,
      "sav": 8590,
      "##issons": 8591,
      "coopérer": 8592,
      "opport": 8593,
      "##istique": 8594,
      "extérieur": 8595,
      "quotidi": 8596,
      "quarti": 8597,
      "veut": 8598,
      "##rions": 8599,
      "historique": 8600,
      "témoi": 8601,
      "os": 8602,
      "://": 8603,
      "religi": 8604,
      "solidarité": 8605,
      "##erie": 8606,
      "destinées": 8607,
      "expul": 8608,
      "appuie": 8609,
      "argentine": 8610,
      "consacré": 8611,
      "reten": 8612,
      "communes": 8613,
      "employés": 8614,
      "joint": 8615,
      "##tur": 8616,
      "subvention": 8617,
      "milliards": 8618,
      "##ertion": 8619,
      "climat": 8620,
      "##édi": 8621,
      "revenus": 8622,
      "devenir": 8623,
      "avoc": 8624,
      "atti": 8625,
      "ras": 8626,
      "connexes": 8627,
      "patri": 8628,
      "inscrire": 8629,
      "discussions": 8630,
      "phili": 8631,
      "colom": 8632,
      "fall": 8633,
      "##mun": 8634,
      "meilleures": 8635,
      "contraint": 8636,
      "convo": 8637,
      "raisonn": 8638,
      "essais": 8639,
      "##ua": 8640,
      "##ution": 8641,
      "##ombe": 8642,
      "jur": 8643,
      "causes": 8644,
      "tiens": 8645,
      "195": 8646,
      "handica": 8647,
      "tchèque": 8648,
      "observateurs": 8649,
      "fnu": 8650,
      "bord": 8651,
      "remercie": 8652,
      "##oun": 8653,
      "huit": 8654,
      "influe": 8655,
      "agricoles": 8656,
      "##ms": 8657,
      "agricole": 8658,
      "énoncés": 8659,
      "##rig": 8660,
      "institution": 8661,
      "totale": 8662,
      "train": 8663,
      "ha": 8664,
      "handicapés": 8665,
      "principale": 8666,
      "conforme": 8667,
      "belgique": 8668,
      "manifest": 8669,
      "juridiction": 8670,
      "partis": 8671,
      "disc": 8672,
      "scientifiques": 8673,
      "gens": 8674,
      "commencé": 8675,
      "étroite": 8676,
      "##tié": 8677,
      "colombie": 8678,
      "indonésie": 8679,
      "susp": 8680,
      "autriche": 8681,
      "science": 8682,
      "syri": 8683,
      "conven": 8684,
      "##onie": 8685,
      "bois": 8686,
      "relation": 8687,
      "fournis": 8688,
      "double": 8689,
      "compagn": 8690,
      "contrats": 8691,
      "élaboré": 8692,
      "exprimé": 8693,
      "devoir": 8694,
      "blan": 8695,
      "malh": 8696,
      "effort": 8697,
      "réta": 8698,
      "##let": 8699,
      "entrepris": 8700,
      "##oyer": 8701,
      "fémin": 8702,
      "mauvais": 8703,
      "soule": 8704,
      "ment": 8705,
      "contribué": 8706,
      "égypte": 8707,
      "##ara": 8708,
      "obligatoire": 8709,
      "habitants": 8710,
      "chô": 8711,
      "officielles": 8712,
      "répression": 8713,
      "exception": 8714,
      "##ologne": 8715,
      "##wa": 8716,
      "pièces": 8717,
      "haï": 8718,
      "susceptibles": 8719,
      "invités": 8720,
      "équiv": 8721,
      "organisme": 8722,
      "go": 8723,
      "calendrier": 8724,
      "iraqu": 8725,
      "ambassadeur": 8726,
      "européennes": 8727,
      "regret": 8728,
      "explic": 8729,
      "signi": 8730,
      "##tiennent": 8731,
      "doc": 8732,
      "ateliers": 8733,
      "augmenter": 8734,
      "maladie": 8735,
      "##naire": 8736,
      "##ulation": 8737,
      "visées": 8738,
      "##gents": 8739,
      "gratuit": 8740,
      "unes": 8741,
      "fournisseurs": 8742,
      "philipp": 8743,
      "judiciaires": 8744,
      "reprise": 8745,
      "légères": 8746,
      "déliv": 8747,
      "accepter": 8748,
      "attén": 8749,
      "directeurs": 8750,
      "vraiment": 8751,
      "appartenant": 8752,
      "nam": 8753,
      "##ette": 8754,
      "vient": 8755,
      "##orter": 8756,
      "conscience": 8757,
      "décla": 8758,
      "réception": 8759,
      "décennie": 8760,
      "établie": 8761,
      "signifie": 8762,
      "300": 8763,
      "##char": 8764,
      "roumanie": 8765,
      "autorisation": 8766,
      "##cture": 8767,
      "recrutement": 8768,
      "socio": 8769,
      "sti": 8770,
      "pétro": 8771,
      "##cier": 8772,
      "brit": 8773,
      "##ani": 8774,
      "incorpor": 8775,
      "handicapées": 8776,
      "perspectives": 8777,
      "mér": 8778,
      "repos": 8779,
      "semaines": 8780,
      "tem": 8781,
      "utilise": 8782,
      "exceptionn": 8783,
      "tre": 8784,
      "pologne": 8785,
      "premières": 8786,
      "puissance": 8787,
      "préparatoire": 8788,
      "entièrement": 8789,
      "hon": 8790,
      "chili": 8791,
      "##tell": 8792,
      "correspondant": 8793,
      "regard": 8794,
      "prestations": 8795,
      "comportement": 8796,
      "représentation": 8797,
      "pourront": 8798,
      "exempl": 8799,
      "arrêt": 8800,
      "administratif": 8801,
      "endroit": 8802,
      "recti": 8803,
      "##réh": 8804,
      "essentiels": 8805,
      "noter": 8806,
      "auxquelles": 8807,
      "perspective": 8808,
      "humanité": 8809,
      "précédent": 8810,
      "hor": 8811,
      "chances": 8812,
      "##73": 8813,
      "##conque": 8814,
      "profit": 8815,
      "##actions": 8816,
      "##riel": 8817,
      "remplacer": 8818,
      "##bours": 8819,
      "km": 8820,
      "##----": 8821,
      "pertes": 8822,
      "##go": 8823,
      "immigration": 8824,
      "trou": 8825,
      "proche": 8826,
      "routi": 8827,
      "rémun": 8828,
      "##tiens": 8829,
      "effectuer": 8830,
      "cadres": 8831,
      "##tisation": 8832,
      "##née": 8833,
      "vir": 8834,
      "rejet": 8835,
      "inclure": 8836,
      "pér": 8837,
      "stratégiques": 8838,
      "##erb": 8839,
      "petite": 8840,
      "koweït": 8841,
      "approvision": 8842,
      "##œur": 8843,
      "##chant": 8844,
      "dispens": 8845,
      "tendant": 8846,
      "équipements": 8847,
      "susc": 8848,
      "recouv": 8849,
      "eaux": 8850,
      "supr": 8851,
      "parfait": 8852,
      "##chent": 8853,
      "##temp": 8854,
      "continent": 8855,
      "universelle": 8856,
      "ancien": 8857,
      "perte": 8858,
      "privés": 8859,
      "proxim": 8860,
      "restaurant": 8861,
      "rang": 8862,
      "croatie": 8863,
      "##nel": 8864,
      "aérop": 8865,
      "fnuap": 8866,
      "êtres": 8867,
      "##ark": 8868,
      "was": 8869,
      "menaces": 8870,
      "médec": 8871,
      "fédéral": 8872,
      "##tor": 8873,
      "palestine": 8874,
      "tari": 8875,
      "rembours": 8876,
      "trouvent": 8877,
      "gol": 8878,
      "te": 8879,
      "amen": 8880,
      "unième": 8881,
      "étape": 8882,
      "introduction": 8883,
      "fabrication": 8884,
      "orateurs": 8885,
      "chyp": 8886,
      "image": 8887,
      "déclare": 8888,
      "chypre": 8889,
      "intelle": 8890,
      "bonnes": 8891,
      "##bler": 8892,
      "##ématiques": 8893,
      "expert": 8894,
      "conver": 8895,
      "spec": 8896,
      "restrictions": 8897,
      "retrouv": 8898,
      "moteur": 8899,
      "séri": 8900,
      "équipes": 8901,
      "sujets": 8902,
      "ibid": 8903,
      "représentent": 8904,
      "télévision": 8905,
      "vent": 8906,
      "réaffirme": 8907,
      "octroi": 8908,
      "yougoslavie": 8909,
      "##orde": 8910,
      "##utri": 8911,
      "00": 8912,
      "##èse": 8913,
      "##temps": 8914,
      "discussion": 8915,
      "éduc": 8916,
      "effectifs": 8917,
      "récon": 8918,
      "devaient": 8919,
      "franc": 8920,
      "respectivement": 8921,
      "individus": 8922,
      "couvert": 8923,
      "##nelle": 8924,
      "##mb": 8925,
      "budgétaire": 8926,
      "serbie": 8927,
      "discrimin": 8928,
      "##mention": 8929,
      "##ting": 8930,
      "##ènes": 8931,
      "reconstruction": 8932,
      "ram": 8933,
      "fru": 8934,
      "express": 8935,
      "##iennes": 8936,
      "susmention": 8937,
      "existants": 8938,
      "oppos": 8939,
      "âgées": 8940,
      "présidents": 8941,
      "puisque": 8942,
      "reçues": 8943,
      "violences": 8944,
      "intellect": 8945,
      "atteinte": 8946,
      "allou": 8947,
      "bulg": 8948,
      "députés": 8949,
      "intégré": 8950,
      "incidence": 8951,
      "profon": 8952,
      "intégrité": 8953,
      "compétents": 8954,
      "libéra": 8955,
      "présentée": 8956,
      "maî": 8957,
      "finlande": 8958,
      "dign": 8959,
      "tourisme": 8960,
      "##ude": 8961,
      "##tons": 8962,
      "##ario": 8963,
      "adolescents": 8964,
      "bra": 8965,
      "domin": 8966,
      "rapportant": 8967,
      "relever": 8968,
      "optim": 8969,
      "mariage": 8970,
      "pourcent": 8971,
      "##gée": 8972,
      "achat": 8973,
      "éthi": 8974,
      "intéressés": 8975,
      "installation": 8976,
      "plaintes": 8977,
      "britann": 8978,
      "fid": 8979,
      "longtemps": 8980,
      "##app": 8981,
      "prenantes": 8982,
      "##idité": 8983,
      "occupé": 8984,
      "##fa": 8985,
      "manifestations": 8986,
      "premiers": 8987,
      "législatives": 8988,
      "##chés": 8989,
      "douan": 8990,
      "saisi": 8991,
      "disposer": 8992,
      "##isté": 8993,
      "##més": 8994,
      "arme": 8995,
      "drogue": 8996,
      "meilleurs": 8997,
      "erre": 8998,
      "opérationnelles": 8999,
      "##cteur": 9000,
      "##jou": 9001,
      "applications": 9002,
      "concert": 9003,
      "##uré": 9004,
      "audi": 9005,
      "##mages": 9006,
      "reconnaît": 9007,
      "unités": 9008,
      "##daction": 9009,
      "##isations": 9010,
      "##ographie": 9011,
      "vaste": 9012,
      "assez": 9013,
      "%.": 9014,
      "adul": 9015,
      "hôte": 9016,
      "harmonisation": 9017,
      "rédaction": 9018,
      "constituer": 9019,
      "insul": 9020,
      "65": 9021,
      "intégra": 9022,
      "ec": 9023,
      "stand": 9024,
      "armées": 9025,
      "applicable": 9026,
      "##face": 9027,
      "locale": 9028,
      "étend": 9029,
      "congrès": 9030,
      "assure": 9031,
      "##rante": 9032,
      "lundi": 9033,
      "immo": 9034,
      "provo": 9035,
      "commerciaux": 9036,
      "##èges": 9037,
      "dommages": 9038,
      "cuis": 9039,
      "accr": 9040,
      "chiffres": 9041,
      "voté": 9042,
      "fédérale": 9043,
      "mol": 9044,
      "comités": 9045,
      "consacrée": 9046,
      "inég": 9047,
      "##ourner": 9048,
      "ge": 9049,
      "sén": 9050,
      "organisées": 9051,
      "temporaire": 9052,
      "rwanda": 9053,
      "évaluations": 9054,
      "pnue": 9055,
      "mad": 9056,
      "espagnol": 9057,
      "économies": 9058,
      "##rière": 9059,
      "##ama": 9060,
      "stocks": 9061,
      "parler": 9062,
      "souveraine": 9063,
      "malheure": 9064,
      "gro": 9065,
      "fallait": 9066,
      "den": 9067,
      "augmenté": 9068,
      "vendredi": 9069,
      "venez": 9070,
      "mén": 9071,
      "équipement": 9072,
      "concept": 9073,
      "##antième": 9074,
      "##urent": 9075,
      "oug": 9076,
      "conformité": 9077,
      "préparer": 9078,
      "malheureusement": 9079,
      "détermination": 9080,
      "##itations": 9081,
      "discu": 9082,
      "élargissement": 9083,
      "lour": 9084,
      "mm": 9085,
      "favorable": 9086,
      "bles": 9087,
      "##rict": 9088,
      "prol": 9089,
      "##uler": 9090,
      "##ides": 9091,
      "suprême": 9092,
      "notant": 9093,
      "scolaire": 9094,
      "rappeler": 9095,
      "vivant": 9096,
      "relève": 9097,
      "accompagn": 9098,
      "primaire": 9099,
      "tunis": 9100,
      "ber": 9101,
      "cœur": 9102,
      "dispositifs": 9103,
      "pollution": 9104,
      "produire": 9105,
      "##rég": 9106,
      "proximité": 9107,
      "allo": 9108,
      "message": 9109,
      "flux": 9110,
      "suc": 9111,
      "remédi": 9112,
      "vision": 9113,
      "##eter": 9114,
      "##umer": 9115,
      "194": 9116,
      "audit": 9117,
      "burundi": 9118,
      "##ordanie": 9119,
      "obtenus": 9120,
      "possibles": 9121,
      "séminaire": 9122,
      "énergétique": 9123,
      "limiter": 9124,
      "arrangements": 9125,
      "homologation": 9126,
      "##cieux": 9127,
      "aband": 9128,
      "effectué": 9129,
      "préli": 9130,
      "prê": 9131,
      "##ive": 9132,
      "fondé": 9133,
      "navi": 9134,
      "genre": 9135,
      "contenant": 9136,
      "exposi": 9137,
      "##cteurs": 9138,
      "éto": 9139,
      "##car": 9140,
      "automatique": 9141,
      "identifier": 9142,
      "établis": 9143,
      "tox": 9144,
      "procédé": 9145,
      "capitale": 9146,
      "modes": 9147,
      "poi": 9148,
      "##érées": 9149,
      "##issage": 9150,
      "azerb": 9151,
      "##djan": 9152,
      "chaî": 9153,
      "portugal": 9154,
      "zélande": 9155,
      "##lisation": 9156,
      "rub": 9157,
      "##bé": 9158,
      "##ster": 9159,
      "ken": 9160,
      "réins": 9161,
      "htm": 9162,
      "##ola": 9163,
      "constate": 9164,
      "communs": 9165,
      "récente": 9166,
      "azerbaï": 9167,
      "accéder": 9168,
      "souhaitent": 9169,
      "azerbaïdjan": 9170,
      "##four": 9171,
      "habitat": 9172,
      "##uves": 9173,
      "protocoles": 9174,
      "somalie": 9175,
      "reconnaître": 9176,
      "##vage": 9177,
      "moitié": 9178,
      "quit": 9179,
      "etats": 9180,
      "idées": 9181,
      "mainten": 9182,
      "marque": 9183,
      "étudiants": 9184,
      "téléphone": 9185,
      "dossier": 9186,
      "fas": 9187,
      "ece": 9188,
      "discip": 9189,
      "omc": 9190,
      ")]": 9191,
      "compréh": 9192,
      "lab": 9193,
      "##20": 9194,
      "démarche": 9195,
      "rappelé": 9196,
      "bases": 9197,
      "milliers": 9198,
      "##usti": 9199,
      "prévus": 9200,
      "inspection": 9201,
      "stade": 9202,
      "##yle": 9203,
      "nour": 9204,
      "slova": 9205,
      "réconciliation": 9206,
      "##stan": 9207,
      "compta": 9208,
      "satell": 9209,
      "ethniques": 9210,
      "proposer": 9211,
      "exportation": 9212,
      "enregistré": 9213,
      "##agnes": 9214,
      "passage": 9215,
      "micro": 9216,
      "dignité": 9217,
      "oubli": 9218,
      "associés": 9219,
      "instruction": 9220,
      "territori": 9221,
      "gamme": 9222,
      "tes": 9223,
      "équilibre": 9224,
      "médica": 9225,
      "coordonner": 9226,
      "cul": 9227,
      "thèmes": 9228,
      "transnation": 9229,
      "déploiement": 9230,
      "thaï": 9231,
      "négociation": 9232,
      "##bo": 9233,
      "retrait": 9234,
      "communautaires": 9235,
      "spécialistes": 9236,
      "tendance": 9237,
      "##érique": 9238,
      "##nels": 9239,
      "gérer": 9240,
      "modèles": 9241,
      "autour": 9242,
      "##af": 9243,
      "prêts": 9244,
      "frontière": 9245,
      "supprimer": 9246,
      "rouge": 9247,
      "options": 9248,
      "##larus": 9249,
      "destiné": 9250,
      "instal": 9251,
      "préalable": 9252,
      "révisé": 9253,
      "orientations": 9254,
      "cherche": 9255,
      "##dum": 9256,
      "bélarus": 9257,
      "chômage": 9258,
      "nic": 9259,
      "pourcentage": 9260,
      "utilisant": 9261,
      "grèce": 9262,
      "campagnes": 9263,
      "obtenu": 9264,
      "boli": 9265,
      "déjeu": 9266,
      "bate": 9267,
      "change": 9268,
      "résumé": 9269,
      "retra": 9270,
      "abst": 9271,
      "identification": 9272,
      "géographique": 9273,
      "bretagne": 9274,
      "volume": 9275,
      "norme": 9276,
      "engagé": 9277,
      "accordée": 9278,
      "entrer": 9279,
      "##rite": 9280,
      "notification": 9281,
      "inquié": 9282,
      "poursuites": 9283,
      "stric": 9284,
      "##emark": 9285,
      "mortalité": 9286,
      "##seurs": 9287,
      "remédier": 9288,
      "aimer": 9289,
      "##agner": 9290,
      "mandats": 9291,
      "##sés": 9292,
      "considérer": 9293,
      "appelé": 9294,
      "modifié": 9295,
      "presque": 9296,
      "exportations": 9297,
      "publications": 9298,
      "cultures": 9299,
      "bibli": 9300,
      "haïti": 9301,
      "##vité": 9302,
      "superv": 9303,
      "précis": 9304,
      "##cession": 9305,
      "dangereuses": 9306,
      "nigéria": 9307,
      "écos": 9308,
      "chin": 9309,
      "artis": 9310,
      "##aises": 9311,
      "liaison": 9312,
      "##…………": 9313,
      "plais": 9314,
      "banc": 9315,
      "##fiants": 9316,
      "mobilisation": 9317,
      "espérons": 9318,
      "requê": 9319,
      "utiles": 9320,
      "adoptés": 9321,
      "cab": 9322,
      "danemark": 9323,
      "fact": 9324,
      "personnels": 9325,
      "exemples": 9326,
      "formuler": 9327,
      "devront": 9328,
      "choisir": 9329,
      "##cl": 9330,
      "tête": 9331,
      "foresti": 9332,
      "capital": 9333,
      "##ho": 9334,
      "##orgie": 9335,
      "##arde": 9336,
      "décret": 9337,
      "prévoy": 9338,
      "effectif": 9339,
      "éman": 9340,
      "sold": 9341,
      "illu": 9342,
      "réalisé": 9343,
      "alig": 9344,
      "quartier": 9345,
      "vont": 9346,
      "vérifier": 9347,
      "##tern": 9348,
      "commande": 9349,
      "contingents": 9350,
      "appliquées": 9351,
      "extern": 9352,
      "##ban": 9353,
      "courriel": 9354,
      "saur": 9355,
      "relativement": 9356,
      "infec": 9357,
      "##inage": 9358,
      "malais": 9359,
      "victime": 9360,
      "épo": 9361,
      "prévoir": 9362,
      "migrations": 9363,
      "##na": 9364,
      "##rets": 9365,
      "##alent": 9366,
      "fao": 9367,
      "saisie": 9368,
      "spatiales": 9369,
      "évidence": 9370,
      "##émie": 9371,
      "espoir": 9372,
      "appliquent": 9373,
      "touchés": 9374,
      "disposent": 9375,
      "bulgarie": 9376,
      "tendances": 9377,
      "adaptation": 9378,
      "transpar": 9379,
      "culturelle": 9380,
      "##opho": 9381,
      "modu": 9382,
      "compati": 9383,
      "continué": 9384,
      "##ft": 9385,
      "quels": 9386,
      "utilisée": 9387,
      "géorgie": 9388,
      "rural": 9389,
      "observateur": 9390,
      "fera": 9391,
      "dûment": 9392,
      "conclure": 9393,
      "rédi": 9394,
      "##olument": 9395,
      "##gin": 9396,
      "rapporte": 9397,
      "préserver": 9398,
      "simil": 9399,
      "sent": 9400,
      "aggra": 9401,
      "##pal": 9402,
      "prennent": 9403,
      "faibles": 9404,
      "enseignants": 9405,
      "manuel": 9406,
      "##ham": 9407,
      "prati": 9408,
      "électroniques": 9409,
      "##ties": 9410,
      "images": 9411,
      "voulons": 9412,
      "démont": 9413,
      "apporté": 9414,
      "continuera": 9415,
      "titul": 9416,
      "futures": 9417,
      "registre": 9418,
      "océ": 9419,
      "##ba": 9420,
      "exac": 9421,
      "informatique": 9422,
      "##ancer": 9423,
      "##ctement": 9424,
      "algérie": 9425,
      "##venue": 9426,
      "vites": 9427,
      "corr": 9428,
      "envisage": 9429,
      "essay": 9430,
      "chacune": 9431,
      "mach": 9432,
      "pay": 9433,
      "darfour": 9434,
      "initial": 9435,
      "##akh": 9436,
      "réinsertion": 9437,
      "bro": 9438,
      "costa": 9439,
      "empris": 9440,
      "défi": 9441,
      "jeudi": 9442,
      "subst": 9443,
      "témoins": 9444,
      "ivoire": 9445,
      "administrative": 9446,
      "culturel": 9447,
      "##urg": 9448,
      "conservation": 9449,
      "consulter": 9450,
      "vivent": 9451,
      "lecture": 9452,
      "province": 9453,
      "voisins": 9454,
      "approvisionnement": 9455,
      "liqu": 9456,
      "annuelle": 9457,
      "objets": 9458,
      "##issante": 9459,
      "barb": 9460,
      "slov": 9461,
      "lou": 9462,
      "brut": 9463,
      "##lers": 9464,
      "êtes": 9465,
      "offrent": 9466,
      "##itres": 9467,
      "tenues": 9468,
      "sauve": 9469,
      "taille": 9470,
      "unesco": 9471,
      "ressortiss": 9472,
      "comprennent": 9473,
      "##érée": 9474,
      "exposés": 9475,
      "réussi": 9476,
      "transpor": 9477,
      "nomination": 9478,
      "##ourir": 9479,
      "durables": 9480,
      "patrimo": 9481,
      "indépendante": 9482,
      "totalement": 9483,
      "fondation": 9484,
      "existantes": 9485,
      "ampleur": 9486,
      "admis": 9487,
      "alimentaires": 9488,
      "''": 9489,
      "finances": 9490,
      "##itons": 9491,
      "##édo": 9492,
      "##lub": 9493,
      "souveraineté": 9494,
      "conformes": 9495,
      "phénomène": 9496,
      "indemnisation": 9497,
      "nul": 9498,
      "confid": 9499,
      "clau": 9500,
      "attaques": 9501,
      "front": 9502,
      "issus": 9503,
      "param": 9504,
      "accrue": 9505,
      "sing": 9506,
      "éthiopie": 9507,
      "précise": 9508,
      "85": 9509,
      "valoir": 9510,
      "philippines": 9511,
      "échelon": 9512,
      "recherches": 9513,
      "féliciter": 9514,
      "somme": 9515,
      "ethnique": 9516,
      "bout": 9517,
      "messieurs": 9518,
      "illicites": 9519,
      "hongrie": 9520,
      "découlant": 9521,
      "préciser": 9522,
      "déjeuner": 9523,
      "appropriée": 9524,
      "seuls": 9525,
      "conjointement": 9526,
      "utilisateur": 9527,
      "impression": 9528,
      "époque": 9529,
      "musique": 9530,
      "voies": 9531,
      "##ives": 9532,
      "facilement": 9533,
      "énoncées": 9534,
      "ga": 9535,
      "##eures": 9536,
      "honor": 9537,
      "##redi": 9538,
      "description": 9539,
      "##do": 9540,
      "”,": 9541,
      "satisfait": 9542,
      "stupé": 9543,
      "profiter": 9544,
      "confidenti": 9545,
      "satisfaire": 9546,
      "expressément": 9547,
      "plainte": 9548,
      "législatif": 9549,
      "ressort": 9550,
      "neuf": 9551,
      "gaza": 9552,
      "jeunesse": 9553,
      "91": 9554,
      "bus": 9555,
      "entendre": 9556,
      "fondamental": 9557,
      "acquisi": 9558,
      "pérou": 9559,
      "intergouvernementales": 9560,
      "degré": 9561,
      "insulaires": 9562,
      "rent": 9563,
      "motifs": 9564,
      "suff": 9565,
      "restent": 9566,
      "lis": 9567,
      "connu": 9568,
      "joué": 9569,
      "):": 9570,
      "riches": 9571,
      "##anz": 9572,
      "interdit": 9573,
      "ru": 9574,
      "village": 9575,
      "98": 9576,
      "épre": 9577,
      "contrôles": 9578,
      "prioritaires": 9579,
      "hyd": 9580,
      "libéria": 9581,
      "châ": 9582,
      "incombe": 9583,
      "officiel": 9584,
      "jeux": 9585,
      "dimension": 9586,
      "patrimoine": 9587,
      "finales": 9588,
      "amis": 9589,
      "participent": 9590,
      "élevés": 9591,
      "chemin": 9592,
      "chale": 9593,
      "pages": 9594,
      "entretien": 9595,
      "cohér": 9596,
      "tél": 9597,
      "dégrad": 9598,
      "fournies": 9599,
      "remise": 9600,
      "bangl": 9601,
      "##atem": 9602,
      "profonde": 9603,
      "potentiel": 9604,
      "secondaire": 9605,
      "##he": 9606,
      "mercredi": 9607,
      "certaine": 9608,
      "compromis": 9609,
      "invo": 9610,
      "tempéra": 9611,
      "dynamique": 9612,
      "66": 9613,
      "option": 9614,
      "formulation": 9615,
      "culturelles": 9616,
      "distance": 9617,
      "ambi": 9618,
      "mondiaux": 9619,
      "extérieure": 9620,
      "montréal": 9621,
      "noms": 9622,
      "guatem": 9623,
      "travaillent": 9624,
      "##ares": 9625,
      "convi": 9626,
      "##ribue": 9627,
      "cuisine": 9628,
      "logiciel": 9629,
      "##hors": 9630,
      "mét": 9631,
      "fréque": 9632,
      "réparation": 9633,
      "aborder": 9634,
      "voici": 9635,
      "régissant": 9636,
      "cohérence": 9637,
      "guatemala": 9638,
      "souci": 9639,
      "médicaments": 9640,
      "considérablement": 9641,
      "emball": 9642,
      "clôt": 9643,
      "tenus": 9644,
      "ministères": 9645,
      "compréhension": 9646,
      "##iendrait": 9647,
      "intellectuelle": 9648,
      "prononc": 9649,
      "affirme": 9650,
      "##alisme": 9651,
      "##fin": 9652,
      "location": 9653,
      "kenya": 9654,
      "supérieure": 9655,
      "volontaire": 9656,
      "##atrice": 9657,
      "dieu": 9658,
      "midi": 9659,
      "navigation": 9660,
      "##adesh": 9661,
      "68": 9662,
      "##entiment": 9663,
      "intéressant": 9664,
      "multiples": 9665,
      "##ga": 9666,
      "actuelles": 9667,
      "stupéfiants": 9668,
      "cibl": 9669,
      "île": 9670,
      "consentement": 9671,
      "nuit": 9672,
      "résidence": 9673,
      "accélérer": 9674,
      "touchant": 9675,
      "orientale": 9676,
      "aménag": 9677,
      "##rid": 9678,
      "logistique": 9679,
      "mouvements": 9680,
      "plate": 9681,
      "autorisé": 9682,
      "enseignements": 9683,
      "frapp": 9684,
      "complexe": 9685,
      "aspect": 9686,
      "invent": 9687,
      "##eront": 9688,
      "xén": 9689,
      "palestinienne": 9690,
      "directe": 9691,
      "naissance": 9692,
      "visites": 9693,
      "cu": 9694,
      "dehors": 9695,
      "##itablement": 9696,
      "inhum": 9697,
      "##alisés": 9698,
      "projec": 9699,
      "kaz": 9700,
      "camb": 9701,
      "aéroport": 9702,
      "ouganda": 9703,
      "malaisie": 9704,
      "gros": 9705,
      "ky": 9706,
      "##ni": 9707,
      "baisse": 9708,
      "diminution": 9709,
      "positive": 9710,
      "##dames": 9711,
      "maritime": 9712,
      "pous": 9713,
      "mesdames": 9714,
      "xénopho": 9715,
      "prêt": 9716,
      "multilatéral": 9717,
      "requis": 9718,
      "lettres": 9719,
      "étroitement": 9720,
      "quin": 9721,
      "perpé": 9722,
      "inu": 9723,
      "gal": 9724,
      "scolaires": 9725,
      "innovation": 9726,
      "détru": 9727,
      "constaté": 9728,
      "adultes": 9729,
      "géné": 9730,
      "400": 9731,
      "immobili": 9732,
      "achats": 9733,
      "commerciale": 9734,
      "sollic": 9735,
      "catastrophe": 9736,
      "multilatéraux": 9737,
      "mère": 9738,
      "sam": 9739,
      "##itec": 9740,
      "##siques": 9741,
      "téléchar": 9742,
      "précisément": 9743,
      "dépit": 9744,
      "litu": 9745,
      "complémentaires": 9746,
      "ing": 9747,
      "approprié": 9748,
      "résul": 9749,
      "intolérance": 9750,
      "##éb": 9751,
      "##itée": 9752,
      "1373": 9753,
      "essentielle": 9754,
      "indépendants": 9755,
      "buts": 9756,
      "ami": 9757,
      "transmission": 9758,
      "##ova": 9759,
      "##ell": 9760,
      "porté": 9761,
      "sac": 9762,
      "cartes": 9763,
      "officielle": 9764,
      "thaïlande": 9765,
      "adressées": 9766,
      "égl": 9767,
      "reconnaissant": 9768,
      "##pore": 9769,
      "jard": 9770,
      "vacc": 9771,
      "vivre": 9772,
      "##agers": 9773,
      "massive": 9774,
      "##urants": 9775,
      "perform": 9776,
      "##oto": 9777,
      "facile": 9778,
      "dem": 9779,
      "élu": 9780,
      "luxem": 9781,
      "pose": 9782,
      "détails": 9783,
      "faute": 9784,
      "flo": 9785,
      "ajus": 9786,
      "envers": 9787,
      "russe": 9788,
      "##avant": 9789,
      "##ja": 9790,
      "réjou": 9791,
      "fichiers": 9792,
      "faudra": 9793,
      "civiles": 9794,
      "##ographiques": 9795,
      "moderne": 9796,
      "signific": 9797,
      "actif": 9798,
      "décider": 9799,
      "##ague": 9800,
      "préjudice": 9801,
      "créan": 9802,
      "prolong": 9803,
      "monu": 9804,
      "pourrez": 9805,
      "##anmar": 9806,
      "formule": 9807,
      "biblioth": 9808,
      "ot": 9809,
      "réex": 9810,
      "fonctionnaire": 9811,
      "myanmar": 9812,
      "bangladesh": 9813,
      "##tendu": 9814,
      "pénit": 9815,
      "concernent": 9816,
      "instaurer": 9817,
      "##tivités": 9818,
      "bénéficient": 9819,
      "fixé": 9820,
      "masse": 9821,
      "lire": 9822,
      "livre": 9823,
      "prison": 9824,
      "parent": 9825,
      "##fec": 9826,
      "espèces": 9827,
      "prouv": 9828,
      "##mont": 9829,
      "73": 9830,
      "saou": 9831,
      "ital": 9832,
      "rome": 9833,
      "oit": 9834,
      "soulignant": 9835,
      "coordonnateur": 9836,
      "vidéo": 9837,
      "récentes": 9838,
      "##ieuses": 9839,
      "ouvrir": 9840,
      "munitions": 9841,
      "biologique": 9842,
      "décent": 9843,
      "contrôler": 9844,
      "matin": 9845,
      "indic": 9846,
      "chev": 9847,
      "##kh": 9848,
      "arrivée": 9849,
      "interd": 9850,
      "visés": 9851,
      "accepté": 9852,
      "défaut": 9853,
[...]
